e n</w>
e r
e r</w>
i n
c h
a n
t h
e n
u n
s t
e i
a r
a l
o r
th e</w>
d i
o n
c h</w>
i n</w>
r e
t i
o n</w>
e l
o t
e s</w>
a u
l i
d er</w>
q u
s ch
e d</w>
s i
o s
in g</w>
a s</w>
qu ot
& quot
&quot ;</w>
a t
g e
a p
r i
an d</w>
e in
r o
t o</w>
w i
- @</w>
@ -@</w>
di e</w>
b e
s t</w>
u r
d e
t e</w>
d en</w>
un d</w>
a n</w>
o f</w>
a t</w>
m i
ap os
& apos
i s</w>
o u
o l
r a
o r</w>
o m
t en</w>
a s
a b
v er
l e
g en</w>
a m
s e
h e</w>
&apos ;
i l
a l</w>
a g
e s
i t
un g</w>
d e</w>
t er
l e</w>
s p
h r
t er</w>
n e
l a
n i
d er
ch t</w>
v e</w>
u s
w h
en t</w>
a r</w>
i e
a c
t h</w>
l y</w>
en t
a ti
f ü
t e
n o
i e</w>
h a
&apos; s</w>
ei n</w>
mi t</w>
S t
c e</w>
f f
th at</w>
f or</w>
u t
g e</w>
i m</w>
c k
v on</w>
z u</w>
w er
i t</w>
l o
b er
s a
v i
e m
w as</w>
s h
u m</w>
w e
i r
d a
d as</w>
au f</w>
ein e</w>
s e</w>
e t
i st</w>
e h
S ch
fü r</w>
m a
s u
o p
de m</w>
r u
a d
g en
a h
d es</w>
r ei
wi th</w>
A n
f or
T he</w>
u t</w>
t s</w>
si ch</w>
b er</w>
a ch</w>
g h
w ei
c on
i m
a m</w>
i s
e m</w>
an d
2 0
t z
b e</w>
ch en</w>
D ie</w>
al s</w>
ni cht</w>
a f
s o</w>
V er
sch en</w>
t a
el l
&apos ;</w>
p ro
c om
ti on</w>
u l
g i
ar e</w>
ei t</w>
in g
e c
e st
h is</w>
p o
li ch</w>
u m
A u
k e</w>
i d</w>
i c
u r</w>
au s</w>
er e</w>
e b
er s</w>
al l</w>
l d</w>
al l
a ch
s en</w>
w or
e x
c o
a hr
ä n
au ch</w>
i g
e y</w>
ou t</w>
m en</w>
S p
I n
b y</w>
r an
l l</w>
R e
ha ve</w>
m e</w>
ati on</w>
as s</w>
ro m</w>
p er
be i</w>
T h
d o
an n</w>
C h
e l</w>
o o
un g
sa id</w>
U n
f rom</w>
on e</w>
B e
ü r
st en</w>
at e</w>
in d</w>
ch e</w>
i el
h as</w>
d en
th er</w>
l u
un gen</w>
e u
n en</w>
ein en</w>
o h
on s</w>
v er</w>
h ab
ou ld</w>
ein er</w>
w ar
c i
g er
b ei
h er</w>
c k</w>
20 1
au s
t ra
wi r
y e
re s
gh t</w>
wi ll</w>
G e
er t</w>
p ar
l ei
i ch</w>
ou r</w>
h at</w>
m e
s o
ag e</w>
d ass</w>
in e</w>
no t</w>
l an
0 0</w>
z u
n ach</w>
p e
da y</w>
t ed</w>
D er</w>
ge b
i st
ein em</w>
en d</w>
t o
si e</w>
P ro
y o
i ch
ä r
ol l
wi e</w>
t s
d s</w>
ü n
er n</w>
m er</w>
d u
g er</w>
m o
wer den</w>
u p</w>
t r
w ar</w>
A l
E n
g an
t y</w>
g el
f t</w>
g t</w>
v or</w>
m an</w>
E r
sch e</w>
p p
h o
w a
h r</w>
al i
au f
or e</w>
th is</w>
n e</w>
t t
sch af
b ut</w>
s el
f i
p la
A r
wh o</w>
li e
m an
D as</w>
th ey</w>
I n</w>
ei r</w>
m ent</w>
z i
no ch</w>
ung s
g o
f in
s ind</w>
k om
a k
th eir</w>
yo u</w>
ü ber</w>
or t</w>
M ar
d ur
s er
m in
s en
ha d</w>
l and</w>
d ing</w>
w ur
wir d</w>
h e
D e
h al
u s</w>
f a
s ag
g r
t en
b i
k l
a d</w>
n er</w>
&apos; t</w>
h en</w>
f e
al ly</w>
am p
w n</w>
o ff
ö n
r ä
v or
g ro
an n
be en</w>
ati on
y s</w>
ol d</w>
h i
B er
st ell
w en
ö r
e t</w>
b o
h at
E in
hab en</w>
w e</w>
ti on
g u
ur e</w>
z um</w>
M a
t ei
el l</w>
ä h
te t</w>
wer e</w>
eh r</w>
z ei
l at
it y</w>
r ü
di es
k ing</w>
e p
A b
os t</w>
m p
am e</w>
t ri
D i
P o
u b
s he</w>
si on</w>
st e</w>
ab er</w>
V or
1 9
m ar
J ahr
wh ich</w>
P ar
in ter
m ore</w>
b t</w>
ie l</w>
om e</w>
ne u
c an</w>
k t</w>
i r</w>
i hr
m on
v en</w>
l in
de s
I t</w>
b en</w>
re c
os e</w>
or t
j u
st a
l er</w>
p ri
s on
ar s</w>
d ed</w>
er en</w>
s ol
ab out</w>
o m</w>
t ung</w>
t w
an der
ent s</w>
f ol
m er
ye ar</w>
A us
f ir
ge gen</w>
k s</w>
j e
o der</w>
p re
n ur</w>
M it
an t</w>
p a
b r
k en</w>
k ön
t u
h ei
w ould</w>
al so</w>
m u
f e</w>
li ch
af ter</w>
g h</w>
m en
st i
sh o
st r
ing s</w>
m ehr</w>
it s</w>
st er</w>
s c
f f</w>
ac k</w>
ü ber
es s</w>
sch l
D a
li chen</w>
t re
ri e
L e
s on</w>
l t</w>
M e
i h
de ut
po li
in c
il li
S ie</w>
wh en</w>
an s</w>
d ar
ge h
on g</w>
f en</w>
on n
er i
ab le</w>
ar d</w>
g ra
se tz
ti me</w>
no w</w>
wur de</w>
b is</w>
hat te</w>
at ed</w>
o b
l en</w>
e st</w>
l as
schaf t</w>
r e</w>
s ein</w>
0 00</w>
li che</w>
el y</w>
us s</w>
t ing</w>
o ther</w>
H e</w>
M on
b ur
f o
st ar
b u
N e
th an</w>
K on
z ur</w>
al e</w>
der n</w>
un d
ar y</w>
mi s
d ent</w>
si ch
el t</w>
f er
ah r</w>
G r
20 0
l ä
y ing</w>
wi e
ou s</w>
m y</w>
Z u
ap p
op le</w>
il e</w>
be t
t ur
com p
or i
s k
ge w
c es</w>
st eh
h er
er ung</w>
un ter</w>
Po li
wa y</w>
v ing</w>
l es</w>
oo d</w>
se i</w>
o ver</w>
re ch
ur o</w>
ta g</w>
l au
p h
fü hr
in s</w>
ü ck
th ere</w>
an ce</w>
g a
d o</w>
B ut</w>
J u
un ter
E s</w>
Au f
ü s
re d</w>
d r
ne h
dur ch</w>
ä ch
v ed</w>
ge sch
es e</w>
ver y</w>
wi r</w>
ä l
pe ople</w>
at en</w>
E uro</w>
d re
au se</w>
re e</w>
v es</w>
De ut
in to</w>
m al</w>
es s
an i
tw o</w>
f ahr
ti g</w>
re p
w s</w>
an y</w>
ti c
fir st</w>
E u
le tz
sp iel
en s</w>
B un
ß en</w>
f u
mi t
in n
sag te</w>
t ro
ju st</w>
ag a
b el
o k
en ce</w>
il l</w>
ub li
p r
er te</w>
k ann</w>
eb en</w>
il l
d on</w>
h im</w>
k er</w>
th ing</w>
ne w</w>
R o
co un
ro p
M in
Un ter
wh at</w>
la st</w>
f ri
ß e</w>
ex p
k e
M en
re s</w>
ge t</w>
en de</w>
L i
n o</w>
st ri
li ke</w>
as e</w>
u e</w>
i f</w>
Pro z
h el
p er</w>
ye ars</w>
hab e</w>
l li
m t</w>
f ac
H er
a u</w>
we i</w>
z t</w>
s ch</w>
as s
kom men</w>
wie der</w>
a st</w>
th em</w>
ge s
s y
si g
we e
ber ei
z e</w>
t on</w>
F ran
j o
e d
a st
ti ve</w>
N o
s h</w>
ti ons</w>
er n
sch on</w>
h in
c ould</w>
ri ch
v om</w>
or s</w>
im mer</w>
a ff
S e
m ei
w al
b ack</w>
en n
ä hr
in v
m at
g lei
de t</w>
ro u
or d
st at
Jahr en</w>
a y
z en</w>
H o
la r</w>
du c
an g
r au
un k
k eit</w>
C o
m ost</w>
st er
J ahr</w>
W e</w>
d a</w>
or y</w>
m s</w>
u n</w>
s ei
h ä
be c
st e
w er</w>
kön nen</w>
B ri
mi li
om e
s ome</w>
oll en</w>
& #
ti es</w>
lo o
K in
ne t</w>
vi el
2 0</w>
O r
en den</w>
st ra
in gen</w>
N ach
z wei</w>
c l
ge f
si dent</w>
o s</w>
ac c
for e</w>
Proz ent</w>
an t
o ff</w>
d ann</w>
f er</w>
n ah
en d
F ü
m ö
a v
In ter
ati ons</w>
n ation
äh ri
ac k
sta g</w>
F ra
st and</w>
s s
el le</w>
on ly</w>
i l</w>
ein es</w>
W ei
gi bt</w>
wen n</w>
Un d</w>
p ubli
der s</w>
d y</w>
un den</w>
h and
wei ter
F or
ri t
b le
p res
h eit</w>
b le</w>
M illi
T a
. .
ge st
G er
com e</w>
b en
ge m
ch te</w>
g ung</w>
ar bei
ad t</w>
ar i
S te
k on
bei m</w>
c ri
in i
ar t</w>
al le</w>
B o
sag t</w>
ihr e</w>
U hr</w>
n ing</w>
ou gh</w>
f ra
s eine</w>
n ed</w>
t or</w>
al le
T e
L ei
g te</w>
M o
V i
p lan
I m</w>
for m
m üs
W ir</w>
e v
e f
ec t</w>
mi tt
em ber</w>
c re
si de</w>
r y</w>
un der
w oh
oo k</w>
E in</w>
s ur
be g
l ed</w>
l ung</w>
sch ä
ol o
D o
g re
wh ere</w>
t el
l ine</w>
f re
1 0</w>
min ist
d ung</w>
3 0</w>
sol l</w>
Bun des
E r</w>
an g</w>
T ra
do ch</w>
Q u
be fore</w>
c u
c ar
y our</w>
ho w</w>
at t
op p
at es</w>
b ar
os s</w>
an c
be ing</w>
L u
i ck
&# 9
I ch</w>
T o
S o
U m
geb en</w>
W o
st u
c al</w>
5 0</w>
z wi
en s
S o</w>
f all
Au ch</w>
W e
ti m
r en
c ent</w>
U S</w>
r on
.. .</w>
wh ile</w>
b all</w>
in ce</w>
w ing</w>
Sp iel
in a</w>
d el
pla y
Re gi
bec ause</w>
m ann</w>
wor den</w>
n ach
g o</w>
St a
war en</w>
ter s</w>
in k</w>
ot e</w>
s s</w>
do wn</w>
F rei
w ür
En t
man y</w>
a b</w>
g ab
gen en</w>
ver n
l ing</w>
e ar
on en</w>
v ie
B ei
th en</w>
An d</w>
po in
an k</w>
ter n</w>
w ell</w>
l er
zwi schen</w>
im p
kl är
sch er</w>
M an
k ed</w>
l än
M u
k eine</w>
sh i
z eit</w>
Men schen</w>
at ing</w>
Ch ri
an z
inc lu
bur g</w>
st ru
en n</w>
est i
a th
en ti
po si
i li
G es
le a
un s</w>
neh men</w>
ma de</w>
s or
en g
T his</w>
el t
T ru
k o
Z ei
i te</w>
s einer</w>
F l
M it</w>
th ree</w>
ch er</w>
1 0
er k
me di
P re
s eit</w>
Jahr e</w>
ou s
c c
su pp
g s</w>
C om
S a
S u
Eu rop
ma ke</w>
in st</w>
N ach</w>
p f
z wei
B et
t old</w>
P e
P er
sch ei
C on
K om
wor k</w>
b st</w>
S y
ä t</w>
an ge
ä u
b re
St ra
m uss</w>
N or
wur den</w>
e i</w>
geh t</w>
un i
aga inst</w>
z ah
se e</w>
us am
b ar</w>
al en</w>
K ar
co ur
au p
er ten</w>
sp e
st s</w>
dies e</w>
s at
dre i</w>
di s
F a
z ur
c y</w>
et zt</w>
th rou
E x
ti gen</w>
sch ie
ü tz
t es</w>
b ot
t in
B ar
F ahr
w om
at er</w>
se hr</w>
es en</w>
ber g</w>
fu l</w>
B il
se hen</w>
z eu
sel f</w>
em ent</w>
K o
mi lli
p l
lo w</w>
h ol
sch land</w>
n is</w>
i schen</w>
ö ff
er g
su ch</w>
U ni
hal ten</w>
ic i
lat z</w>
e g
G el
di e
si ve</w>
e ven</w>
ö l
ch il
tr y</w>
sch n
d ri
as on</w>
ch en
wee k</w>
A k
er sten</w>
go ing</w>
sp ec
n un</w>
oh n
u p
v en
A mer
e f</w>
res s</w>
si tz
h ar
ch ar
B ür
1 5</w>
eu te</w>
us ed</w>
B u
dies er</w>
f te</w>
berei ts</w>
Deut schland</w>
di d
F in
C ar
w in
Th ey</w>
ol le
p rä
ff en</w>
Ü ber
f l
it ed</w>
ci al</w>
be k
st o
S he</w>
at ur
u te</w>
sh ould</w>
en e</w>
mu ch</w>
g ut</w>
g ar</w>
Ar bei
b ri
i g</w>
g lich</w>
R ei
H ar
sa ys</w>
l in</w>
G em
, 000</w>
di en
Fü r</w>
ü ck</w>
t al
ma cht</w>
B r
w är
st än
at s
z ie
el n</w>
v el
oll te</w>
N eu
k ur
vern ment</w>
d ro
st ill</w>
am es</w>
die se
P r
stell t</w>
I s
Ne w</w>
s ome
wor ld</w>
s ed</w>
throu gh</w>
En g
c ed</w>
H ei
T ei
ati ve</w>
i cht</w>
ta ke</w>
c le
x t</w>
us si
mar k
ti g
ver b
ag o</w>
th ose</w>
steh t</w>
G ro
diese m</w>
di ff
v ol
M r</w>
un der</w>
E U</w>
f el
w a</w>
ta in</w>
and s</w>
c ap
a si
st im
ing er</w>
v e
c lu
i k
h ome</w>
ell en</w>
as ed</w>
F u
Be i</w>
f ten</w>
da mit</w>
G en
E l
A ut
di d</w>
p os
g ood</w>
wi th
. de</w>
te am</w>
ou se</w>
t t</w>
w an
i hr</w>
ri ght</w>
1 2
las sen</w>
B au
th ink</w>
k ün
ö h
ap pe
t lich</w>
e ff
wei se</w>
neu e</w>
ti k</w>
ig er</w>
un de</w>
ah l</w>
Sch ul
a de</w>
v iel</w>
ou t
ar o
se t</w>
R i
Z eit</w>
in ed</w>
p en
S ie
is ch</w>
as si
J o
ru pp
ti ge</w>
kön n
m p</w>
ck en</w>
b il
com m
Amer ic
d ings</w>
Y o
L an
b ro
H a
ch t
ü h
in er</w>
le ss</w>
wi ck
müs sen</w>
re gi
milli on</w>
i c</w>
am m
F re
E ine</w>
gra m
A m</w>
er in</w>
K ri
n ung</w>
W or
et s</w>
ut z
te m
en en</w>
s einen</w>
f ur
nation al</w>
f t
ma y</w>
En de</w>
s m
we gen</w>
aus ge
l ar
sel bst</w>
er klär
to o</w>
O b
W al
s ince</w>
w ed</w>
l ong</w>
sa y</w>
viel e</w>
ag ue</w>
ch ten</w>
f il
c all
wei ter</w>
bel ie
te l</w>
aro und</w>
r und</w>
d ra
ent ly</w>
shi p</w>
li g
Th ere</w>
te te</w>
t ten</w>
ähri ge</w>
L and
c t
i ce</w>
inv est
er st</w>
j etzt</w>
W i
&apos; re</w>
gen d
se l</w>
s es</w>
wei l</w>
ei g
1 .
k now</w>
Tru mp</w>
us e</w>
Gem ein
or d</w>
k t
g ar
h app
we en</w>
k onn
Milli onen</w>
ma chen</w>
P rä
se con
M ich
dur ing</w>
1 8
ihr en</w>
O p
L on
le g
b or
s ame</w>
hat ten</w>
li fe</w>
steh en</w>
so wie</w>
t ran
c t</w>
1 8</w>
m a</w>
re ad
ver si
Ber lin</w>
em p
gan g</w>
kom mt</w>
sch lie
neu en</w>
am en</w>
s einem</w>
sp iel</w>
y p
rei s</w>
ihr er</w>
in nen</w>
ander en</w>
Do ch</w>
b ra
re sp
H e
ge l</w>
hi er</w>
k es</w>
st ed</w>
L o
ig h</w>
c la
or en</w>
D em
w ant</w>
k en
ne xt</w>
W ir
mi ly</w>
oh ne</w>
ch s</w>
S P
et wa</w>
&apos; m</w>
th s</w>
woh l</w>
for m</w>
b lei
I f</w>
bet ween</w>
war d</w>
ch an
h in</w>
1 2</w>
or ts</w>
per i
ur s</w>
A f
A ber</w>
d ru
st ag
ge hen</w>
gem ein
d an
setz t</w>
th ese</w>
P f
b eit</w>
R ich
l s</w>
S am
n um
k te</w>
S onn
W h
&apos; ve</w>
z ei</w>
i ge</w>
gan z</w>
Ge sch
sho w</w>
st em</w>
alle m</w>
de ci
w w
el s</w>
P ri
t z</w>
st an
st and
i es</w>
ni ght</w>
f all</w>
par t
St u
B i
ec ted</w>
go vernment</w>
in ing</w>
ga b</w>
b us
2 5</w>
ö ß
am t</w>
s ing</w>
for der
R u
g s
G re
19 9
B es
S ei
J an
p a</w>
sei en</w>
eb en
T u
a k</w>
g ame</w>
c ra
de f
t ru
ic k</w>
M i
S A</w>
g ing</w>
G eb
o wn</w>
vi er</w>
k no
es day</w>
g ri
fahr en</w>
e p</w>
k ra
ag er</w>
N ation
de l</w>
it al</w>
stell en</w>
n a
4 0</w>
son dern</w>
r at
w o</w>
tion en</w>
R ück
i sche</w>
K l
wa ys</w>
be st</w>
ver gan
f ul
se ason</w>
gab en</w>
f our</w>
c tion</w>
vi ce</w>
par t</w>
d am
glei ch</w>
m us
pro duc
di g
st re
t te</w>
ni s
st ei
L in
su m
S c
au m</w>
dur ch
W ie</w>
V or</w>
ur n
W er
Yo u</w>
wi ch
G o
au t</w>
vie w</w>
G ra
la gen</w>
c ur
P h
an other</w>
a ir
et was</w>
m or
g ed</w>
Lon don</w>
St adt</w>
J un
an y
str ali
secon d</w>
i a</w>
d pa</w>
er r
w el
Th at</w>
st it
pla ce</w>
lan g</w>
go t</w>
ot o</w>
for mer</w>
1 1</w>
H am
usam men
da bei</w>
th ough</w>
ne ed</w>
U r
1 4</w>
f rei
v o
to p</w>
l os
1 6</w>
dr en</w>
ti c</w>
B ay
Poli zei</w>
p s</w>
le ft</w>
as h
Di en
fall s</w>
ä tz
poli ti
k a</w>
Bür ger
fa mily</w>
h ere</w>
S er
neu es</w>
fü n
o ver
coun try</w>
be h
z eh
st adt</w>
la g</w>
f li
di es</w>
est er</w>
G u
l age</w>
g lich
Au strali
Min ist
ä ter</w>
e ch
w ollen</w>
201 3</w>
am a</w>
tra g</w>
ti v
201 4</w>
con c
i er</w>
t ter</w>
t ag
th e
op er
olo g
er h
sp o
ih n</w>
ver y
con tin
re ally</w>
inc re
fo und</w>
201 5</w>
ie der
ar e
da ys</w>
n or
fa st</w>
Mu si
a z
I m
amp i
st al
bi g</w>
den en</w>
n s</w>
us s
tei l
at h</w>
Un ited</w>
M ün
Eu ro
1 .</w>
ent r
j a</w>
w in</w>
pr ot
ou th</w>
e ver</w>
wer de</w>
su b
re la
M at
ck t</w>
tr ä
qu i
inclu ding</w>
Kin der</w>
J oh
rei ch</w>
T V</w>
1 ,
publi c</w>
ar ed</w>
S en
ne y</w>
ar ly</w>
w r
gr öß
ne ver</w>
M c
r .</w>
t schaf
all er
o b</w>
la ck</w>
ti sh</w>
Au f</w>
di rec
ih m</w>
au er</w>
B ra
sat z</w>
mei ster</w>
h igh</w>
201 2</w>
st ä
vergan genen</w>
p le
om men</w>
W enn</w>
ac e</w>
h eute</w>
ver k
H and
schä f
1 ;</w>
&#9 1;</w>
A s</w>
ck e</w>
resp on
p ut</w>
t ä
bot h</w>
Al s</w>
k ei
et t
k un
3 ;</w>
&#9 3;</w>
bek ann
ü l
chil dren</w>
ch e
d ge</w>
W ar
sp ar
read y</w>
am s</w>
Fu ß
be son
se ar
ou ght</w>
B re
a den</w>
ber ich
d ür
S k
1 00</w>
bu il
s ollen</w>
ß t</w>
pla y</w>
b l
1 7</w>
1 3</w>
ander e</w>
d or
c el
u le</w>
c or
z o
al d</w>
h än
F ri
f rü
Me di
d i</w>
sh ed</w>
m em
Le ague</w>
ah l
ein mal</w>
st ar</w>
1 5
g es</w>
el ec
me hr
fol lo
diff er
gh ts</w>
mon ths</w>
a el</w>
V on</w>
ation en</w>
& amp
&amp ;</w>
bei den</w>
S h
M or
Fa mili
D ar
th er
f est
i er
letz t</w>
es si
it z
tt ing</w>
a il
Sch l
gen er
al t</w>
br au
201 6</w>
ähr end</w>
le y</w>
l y
loo k</w>
vi si
oo l</w>
c er
a way</w>
ir e</w>
h ard</w>
minist er</w>
pro f
W est
Eng land</w>
d au
er z
D ur
w on</w>
O ber
st ate</w>
n er
al ity</w>
S .</w>
h ist
fi ve</w>
W elt
F lu
W elt</w>
tic al</w>
en z
all es</w>
ck s</w>
g l
No v
zei ch
or gan
Y or
o l</w>
St ad
or ding</w>
m ents</w>
c ou
M ann</w>
b an
c o</w>
ag es</w>
c ent
geh ör
all en</w>
am er
Kon z
p or
ch es</w>
ber s</w>
wei t</w>
k s
B ro
lo s</w>
n t</w>
aup t
R a
mis sion</w>
W il
ur y</w>
tim es</w>
ber t</w>
an no
m ent
e con
hal b</w>
S ep
v el</w>
mon th</w>
hel p</w>
en k
os sen</w>
ent lich</w>
Chri st
c amp
P latz</w>
b ie
in ess</w>
mi r</w>
wom en</w>
k ein</w>
. 0
pro ble
schl and
6 0</w>
wi s
pro vi
n äch
f as
c an
tt le</w>
k ri
M ann
ke hr
la tion</w>
g lie
t schaft</w>
SP D</w>
a cht</w>
r a</w>
U .
in de
f iel
F or</w>
ah n
H ol
we ver</w>
e very
letz ten</w>
f äl
off ici
te ch
al th</w>
f un
Fran k
is su
ß er
hi gh
call ed</w>
Da vi
t ook</w>
e k
T r
W in
ch ts</w>
ge stellt</w>
z un
mi c</w>
comp any</w>
un kt</w>
poli ce</w>
re tur
m b
w at
de st
f ach</w>
d ort</w>
deut schen</w>
lo t</w>
könn te</w>
t ungen</w>
S V</w>
Mich ael</w>
W ol
h op
u res</w>
T re
H al
en der</w>
it ät</w>
2 1</w>
i gen</w>
V ol
re su
S ich
ah n</w>
A d
B el
den ti
s er</w>
k am</w>
ous ly</w>
re m</w>
201 1</w>
sch rei
ac t</w>
se en</w>
e very</w>
K ur
da für</w>
k n
c e
deut schland
U SA</w>
in s
mi d
fin den</w>
l l
hal f</w>
ti l</w>
F i
ab ili
2 4</w>
sa m</w>
F il
ha m</w>
ut es</w>
F C</w>
W as</w>
an der</w>
on es</w>
rupp e</w>
1 7
- -</w>
schlie ß
p as
p ra
off en
li ck</w>
K re
D an
m el
Gr und
in di
ge st</w>
sy stem</w>
u al</w>
h u
r oss</w>
i z
l d
lo b
tion al</w>
mi ght</w>
konn te</w>
W hen</w>
ep t</w>
deutschland .de</w>
mi ch</w>
er st
gen ommen</w>
gen d</w>
h t</w>
mon ey</w>
t ary</w>
gro up</w>
li ttle</w>
1 9</w>
fe w</w>
J e
zi al
A le
führ t</w>
W ohn
ad ded</w>
mu si
sch ein
f ic
Sep tem
bi li
sp ro
ich te</w>
st ütz
os p
di g</w>
si ble</w>
lä u
al ten</w>
F rau
K ir
1 3
lich er</w>
ver s
t in</w>
rep or
Septem ber</w>
b lo
L ie
s ollte</w>
Pro ble
gre at</w>
s ure</w>
fin an
hei ts
ol e</w>
b and</w>
L and</w>
en ing</w>
J ah
Jan u
D u
Sc ot
c ame</w>
v al</w>
aga in</w>
t ly</w>
tei l</w>
star t</w>
t om
S un
L a
S el
be l</w>
gro ße</w>
C ity</w>
da zu</w>
fün f</w>
n at
de m
sp rech
o w
O n
n ess</w>
con si
u ten</w>
je doch</w>
de al</w>
b ab
i ert</w>
m m
G ar
all er</w>
be ss
re le
re ma
ni chts</w>
p le</w>
F ir
au en</w>
A n</w>
v al
2 2</w>
t ure</w>
ne e
Th em
A pri
G i
stell ung</w>
wär e</w>
em s</w>
en ds</w>
gr ün
cla im
num ber</w>
L eben</w>
setz en</w>
y er</w>
ti ert</w>
Ch ar
fac e</w>
auf en</w>
kom men
Sp iel</w>
Th om
ch ed</w>
zur ück
gro ßen</w>
posi tion</w>
c a</w>
at or</w>
W it
ein ge
Fra u</w>
201 0</w>
il y</w>
chan ge</w>
bet ter</w>
D a</w>
a ig
Ta g</w>
ap pro
pri v
Apri l</w>
w ent</w>
A s
cle ar</w>
Yor k</w>
lat er</w>
ß en
with out</w>
ih rem</w>
ar ing</w>
b ach</w>
al ways</w>
eu er
Gen er
ri ty</w>
b st
aller dings</w>
ing t</w>
b s</w>
poin t</w>
er ste</w>
ck er</w>
1 4
am ent</w>
C or
Ge or
is h</w>
bi sh
did n</w>
H aupt
ot en</w>
ab ge
comp le
Ber ei
Davi d</w>
play ers</w>
fin al</w>
ant wor
nah men</w>
al y
oll ten</w>
H el
Ch ina</w>
O ne</w>
T ur
Nov ember</w>
f ar</w>
ha ving</w>
com ing</w>
A m
S ti
Ob ama</w>
wh e
ä mp
su cc
in n</w>
f ron
Bri tish</w>
U. S.</w>
H il
st ie
form ation</w>
S ü
f eh
H in
wir k
sp r
Sonn tag</w>
C D
L än
ge gen
some thing</w>
1 6
si cht</w>
fo ot
kei ten</w>
nah me</w>
sp ra
ec u
con tro
An gel
to ber</w>
dies es</w>
g g
on i
Arbei ts
O ff
L eb
Gro ß
m un
z w
spec i
si ert</w>
o t</w>
c ase</w>
in f
lä s
e y
Au gu
de vel
t lichen</w>
en z</w>
h aus</w>
P au
. co
wür de</w>
qu esti
D onn
c ity</w>
ti gt</w>
camp aig
w o
Fl ü
at s</w>
M an</w>
K an
clu b</w>
bo dy</w>
T ri
is ed</w>
he ad</w>
R ussi
l ungen</w>
ou ri
äch st</w>
ot s</w>
le t</w>
su cht</w>
S on
sch ul
par ty</w>
H ö
den ce</w>
sch i
U K</w>
den n</w>
eh t</w>
ä d
St re
weiter e</w>
ti k
Sa is
gew esen</w>
P al
te mp
th ings</w>
lie gt</w>
3 0
th ers</w>
Di ese</w>
Te am</w>
J ährige</w>
S al
ot el</w>
Sich er
w ach
lan ge</w>
c as
l ö
si x</w>
re g
de o</w>
or e
ar t
li k
ma j
en ed</w>
Bun de
supp ort</w>
an stal
D enn</w>
al ready</w>
F ol
Bay ern</w>
k re
ni e</w>
ex c
ti e</w>
N ieder
e ach</w>
P or
Bes u
war ds</w>
zur ück</w>
tion s
P unk
n en
T i
un ser
stim m
rei chen</w>
sch t</w>
b ed</w>
öff ent
gram m</w>
F o
B eh
W er</w>
ing ton</w>
e vi
Ju gend
D es
mark et</w>
2 .
Americ an</w>
z er</w>
b au</w>
in t</w>
so gar</w>
Uni versi
N et
mu st</w>
zei gt</w>
gr ap
k tion</w>
Unter nehmen</w>
b illi
c ul
Wor ld</w>
B C</w>
B a
ut t
sh al
zeh n</w>
per cent</w>
S om
ly mp
ir d</w>
2 3</w>
Euro pe
O n</w>
ol le</w>
L ö
m om
i de
f ig
da von</w>
n ot
per son
tw o
um s</w>
si s</w>
sch aff
c ol
sch en
do es</w>
des sen</w>
ma king</w>
Mit glie
Tra iner</w>
ge ment</w>
se x
ter n
D ie
O lymp
yo ung</w>
h um
b ank</w>
CD U</w>
d ly</w>
si te</w>
si eht</w>
Mit two
un til</w>
hä tten</w>
W hat</w>
Sta ats
com es</w>
C up</w>
kun ft</w>
Al l
M al</w>
19 8
c li
äh lt</w>
ch ang
pa st</w>
g n
bus iness</w>
sti an</w>
m ed</w>
F all</w>
ut ure</w>
fe st</w>
f an
Augu st</w>
gro ß
H u
au th
cur r
Joh n</w>
t liche</w>
Donn er
N o</w>
ru n</w>
se ver
c ti
ge macht</w>
f ind</w>
b in</w>
Frei tag</w>
F eb
te ten</w>
et ing</w>
fel d</w>
re ve
for t
Wo che</w>
di tion</w>
An dre
.co m</w>
eh ic
nis se</w>
201 7</w>
z el
z war</w>
Sun day</w>
s al
Gr ün
to day</w>
T or
mo ve</w>
f le
hei m</w>
F ac
imp ort
se cu
Sam stag</w>
er fol
D is
Ho ch
er war
al lo
fü h
K ran
Pre sident</w>
Ma y</w>
h ö
ch ing</w>
S ol
rec ei
k ers</w>
Per son
b in
g ent
ot t
co ver
gab e</w>
Sp ort
Europe an</w>
a h</w>
We g</w>
f s
A t</w>
ch o
w elt
Pre mi
b is
ap p</w>
g ir
li c
gi ve</w>
c olle
se a</w>
ri s
K un
R en
th em
dies en</w>
st en
stra ße</w>
ak tu
Milli ar
I r
D on
anno un
lau t</w>
differ ent</w>
wom an</w>
Er fol
an z</w>
R om
ges amt</w>
f ree</w>
sp re
in ten
lig a</w>
ge ther</w>
in du
h ouse</w>
wh y</w>
v oll
der t</w>
Thom as</w>
n ei
5 0
sch le
ta ken</w>
k ti
f ang</w>
g li
qu ar
l a</w>
K at
der en</w>
re al</w>
p op
l and
lik ely</w>
de c
Kin der
Feb ru
Regi erung</w>
acc ording</w>
c ar</w>
B or
ell er</w>
ell ing</w>
sp äter</w>
br ingen</w>
on line</w>
F rie
gi ven</w>
te i</w>
di sc
ag ed</w>
v ot
sear ch</w>
ei gen
ta in
Frau en</w>
wor king</w>
P la
Pro je
200 9</w>
rei s
Gel d</w>
ser v
jo b</w>
S ach
p u
le ben</w>
on y</w>
f lo
tri tt</w>
gel e
olo gi
pa y</w>
K a
F oto</w>
Z usammen
lo ve</w>
&apos; d</w>
ch ester</w>
devel op
o ft</w>
a ir</w>
amp f</w>
p ic
d ou
Wo chen</w>
sa gen</w>
ab end</w>
In di
ri cht</w>
st är
ear ly</w>
il s</w>
Fri day</w>
Pe ter</w>
an a</w>
stat t</w>
ful l</w>
whe ther</w>
schl uss</w>
su g
M ö
Mit tel
del i
schl ossen</w>
schaf ten</w>
rep ort</w>
Ver ein
B est
pp ed</w>
W est</w>
Ar beit</w>
ähri gen</w>
Ch ampi
un t</w>
as ked</w>
arbei ten</w>
be come</w>
on ce</w>
Prä sident</w>
T er
h im
to gether</w>
B an
er ungs
c ted</w>
we ch
deut sche</w>
us ing</w>
th re
li er</w>
ur s
L ab
be wer
r un
ra cht</w>
M är
ein fach</w>
M än
4 5</w>
um p
Fra ge</w>
medi a</w>
Ent schei
qu e</w>
sp i
en ter</w>
5 00</w>
ei genen</w>
sa ying</w>
deut lich</w>
st or
T it
T el
s ung</w>
tran s
B l
en ough</w>
y ed</w>
K ra
ri ch</w>
en er</w>
ta king</w>
c a
2 8</w>
dar auf</w>
ür lich</w>
th ought</w>
Sy ri
ro om</w>
sch w
wür den</w>
Pro du
tra gen</w>
si ons</w>
he ad
S atur
zwei ten</w>
Flu g
W ed
k ill
200 8</w>
fin det</w>
campaig n</w>
An t
de te</w>
zu g</w>
An gaben</w>
Da bei</w>
dar f</w>
loo king</w>
I N
p unkt</w>
K il
T im
Fin anz
at ely</w>
le ast</w>
rit ten</w>
&apos; ll</w>
ru ch</w>
i se</w>
rei ch
inn ing</w>
sch ool</w>
Flü cht
vi ces</w>
hei ßt</w>
ut z</w>
R es
Af ter</w>
w ährend</w>
er ed</w>
pr o</w>
invest ig
th ird</w>
ri ed</w>
Fahr zeu
as sen</w>
c are</w>
is m</w>
ti schen</w>
an s
sh ar
H ouse</w>
un ity</w>
mö glich</w>
G l
w as
as se</w>
ex peri
e k</w>
h or
ie f</w>
ih nen</w>
Europ a</w>
ra tion</w>
fiel d</w>
ke ep</w>
ok ed</w>
r ate</w>
Uni on</w>
s ing
w .
t ungs
der zeit</w>
de sig
Fü hr
tre ten</w>
e er</w>
ot o
sp ort</w>
we g</w>
ec ts</w>
wen iger</w>
W ahl
gh ter</w>
b it</w>
Bri tain</w>
S tim
li ve</w>
ac ross</w>
ci p
g ten</w>
O k
viel en</w>
usam men</w>
u tion</w>
p ot
P res
7 0</w>
ger ade</w>
K ö
di o</w>
lich keit</w>
si e
sch ri
os ed</w>
pre sident</w>
d ents</w>
gen ann
Mon day</w>
läs st</w>
gr und</w>
ch ter</w>
Di es
der ung</w>
Mon tag</w>
ta x</w>
en ten</w>
d at
it ä
Mar k
d one</w>
In v
c ro
di re
ye t</w>
Tei l
li ght</w>
b ased</w>
hr en</w>
K ap
H au
Re publi
f ei
fi ed</w>
Deut schen</w>
Tu esday</w>
j ect</w>
ww w.
M ei
a in</w>
ent wick
contin u
mus ste</w>
inv ol
cour se</w>
at ten
2 7</w>
mo ther</w>
b lack</w>
B en
il t</w>
spiel en</w>
follo wing</w>
fe el</w>
hä tte</w>
h it</w>
t ar
. 000</w>
Mün chen</w>
m us</w>
V iel
Satur day</w>
wen ig</w>
G ol
ck ed</w>
glei ch
st om
B ur
ent schei
kno wn</w>
de sp
Wed n
2 ,
dor f</w>
se chs</w>
ge geben</w>
2 6</w>
Sch war
Pro f
Mittwo ch</w>
Tei l</w>
poli tical</w>
b oo
Z wei
ver l
so ci
Stra ße</w>
po wer</w>
Wedn esday</w>
j ährige</w>
M is
D en</w>
Mit arbei
z ed</w>
beh ind</w>
F euer
Ste u
m als</w>
Leb ens
p ur
Mar tin</w>
F e
emp lo
en ding</w>
l ate</w>
g st</w>
fri end</w>
we hr</w>
K ul
ak ing</w>
Donner stag</w>
l le</w>
K u
ger n</w>
ro w</w>
di gt</w>
ge t
Fuß ball</w>
si mp
N i
sch ö
st ing</w>
geb racht</w>
ld n</w>
t ali
ra l</w>
Th urs
lie gen</w>
A ll</w>
S outh</w>
G ä
b li
Is ra
r at</w>
Er geb
ein ige</w>
erklär te</w>
L au
3 5</w>
Co un
Thurs day</w>
blei bt</w>
Th e
ur t</w>
sch ule</w>
w ollte</w>
cl ose</w>
est s</w>
8 0</w>
n ers</w>
F ar
B ank</w>
Zei tung</w>
u lar</w>
er ing</w>
cour t</w>
k rä
k i
en a</w>
ass er</w>
j ahr</w>
Stad t
do ing</w>
g ames</w>
f uture</w>
de mo
fil m</w>
p p</w>
h ör
M ad
sc or
poin ts</w>
Dien stag</w>
abili ty</w>
b y
C ol
ac coun
Them a</w>
3 .
ori es</w>
fa il
zun ächst</w>
pe ti
Min uten</w>
E le
H is</w>
he alth</w>
D ru
201 8</w>
play ed</w>
k ey</w>
import ant</w>
Wit h</w>
F el
ani schen</w>
tic s</w>
h and</w>
l te</w>
p ort</w>
in e
econ o
W illi
St and
M erk
Ent wick
ie t</w>
pl an</w>
wee ks</w>
P at
al ed</w>
g än
M al
w ri
hä lt</w>
w ahr
t le</w>
wer s</w>
N at
m ut
l on
Ch ef</w>
ot z</w>
s ere</w>
T ran
inter national</w>
B us
es sen</w>
M el
am ed</w>
exp ected</w>
A ir
ge tting</w>
bur ger</w>
Vor sitz
sm all</w>
2 5
m ati
f tig</w>
tschaf ts
M ot
z usammen</w>
ti v</w>
con tra
Milliar den</w>
G eh
Lan des
so cial</w>
in formation</w>
ti sche</w>
se h
f ans</w>
spiel t</w>
ar ds</w>
ap s</w>
Par tei
l ost</w>
p latz</w>
rec ent</w>
2 .</w>
ne ws</w>
M r.</w>
b ig
on al</w>
A pp
Ges prä
ag re
ar ri
ac tion</w>
k o</w>
9 0</w>
Australi a</w>
Bei spiel</w>
F ern
la w</w>
for man
fron t</w>
di sp
con t
T wi
a y</w>
or ity</w>
olog y</w>
bet on
S eit</w>
n ame</w>
20 0</w>
K op
fa mili
deci sion</w>
Ge schäf
Sei te</w>
c um
ei cht</w>
Ge gen
R os
blei ben</w>
k einen</w>
ehic les</w>
erklär t</w>
on a</w>
ne te</w>
g ilt</w>
S it
ge sp
d om
su ff
Sch w
per son</w>
eben falls</w>
I tali
ser ies</w>
ol lar</w>
y le</w>
ander em</w>
fra ge</w>
are a</w>
wi fe</w>
Minist er</w>
D ass</w>
D re
di gen</w>
Man chester</w>
H aus</w>
s li
sch es</w>
b au
am ong</w>
ä um
ser vice</w>
W ash
m ein
J os
d lich</w>
w ater</w>
tech ni
on d</w>
Sch ü
sch wer
b it
B la
g rei
ßer dem</w>
es n</w>
Ho wever</w>
ag en
gu te</w>
po ol</w>
o ften</w>
es se</w>
Sie g</w>
sho t</w>
fol ge</w>
al most</w>
t ot
Me hr
B al
A t
0 0
näch sten</w>
h om
eb ook</w>
o li
su chen</w>
play er</w>
Nation al
A fri
än de</w>
pre vi
lo cal</w>
fac t</w>
tu n</w>
de ath</w>
sch lag</w>
2 9</w>
s wi
an ts</w>
Inter net</w>
ti eren</w>
pro c
t yp
d in
Te ch
In form
comp ani
Ma i</w>
Sais on</w>
ch i
Geschäf ts
Re ch
belie ve</w>
p ut
le b
Sp rech
billi on</w>
p lat
eu rop
ran t</w>
hr e</w>
är e</w>
s ollten</w>
re fer
re cht</w>
F rü
bish er</w>
Gesch ichte</w>
Sp e
g an</w>
l en
M il
k aum</w>
p ass
W M</w>
f ran
Ber lin
in es</w>
M os
führ en</w>
de ta
19 7
zie hen</w>
m ember</w>
k ten</w>
ser i
K rie
B rü
E i
h au
iel t</w>
ti vi
ver schie
Frank fur
bess er</w>
st ein</w>
par tic
Bürger meister</w>
H or
schn ell</w>
w ood</w>
Wash ington</w>
führ er</w>
wan ted</w>
zie h
on nen</w>
der e</w>
d le</w>
3 1</w>
T age</w>
2 4
ell schaft</w>
En erg
stat ement</w>
St rei
tri es</w>
M er
Pau l</w>
lä tz
te st</w>
D or
Mann schaft</w>
off ic
T ex
c ing</w>
mem bers</w>
us h
Fac ebook</w>
P a
sever al</w>
b ack
cou ple</w>
kön ne</w>
al ität</w>
Par is</w>
et te</w>
him self</w>
ad ing</w>
ic s</w>
schn it
zo gen</w>
S i
for t</w>
do esn</w>
ent ed</w>
P ol
le ad</w>
ge plan
v a</w>
ul l</w>
en th
Lei st
ho urs</w>
cel eb
rich ten</w>
Z um</w>
m ä
fur ther</w>
tr ying</w>
repor ted</w>
A R
le gen</w>
rei se</w>
Z iel</w>
sa w</w>
an geb
c at
Me ter</w>
a i
hin ter</w>
en te</w>
zi ert</w>
Nor th</w>
Famili e</w>
T o</w>
ec k</w>
G rü
Ale x
k an
Mon aten</w>
w ahl</w>
man ager</w>
t ät</w>
secu rity</w>
mi l
d ungen</w>
sich er
r ing</w>
zah l
min utes</w>
sp ort
Z u</w>
schl ä
ut ter</w>
Pr ot
beson ders</w>
mat ch</w>
wei ß</w>
sk i</w>
W el
lin gen</w>
r en</w>
k enn
lu s</w>
ab sol
be kommen</w>
ul t</w>
un ds</w>
r os
ar beit</w>
Da mit</w>
könn ten</w>
de b
for ward</w>
Twi tter</w>
Europ e</w>
kon z
p i
b all
gen den</w>
b ir
t ors</w>
di um</w>
M y</w>
An fang</w>
m mt</w>
im pro
gehör t</w>
w n
C an
star ted</w>
St unden</w>
fa ther</w>
ff e</w>
st elle</w>
St utt
retur n</w>
op en</w>
f rie
bekann t</w>
Ex per
ing ly</w>
gro und</w>
ro und</w>
Or gan
ex per
se e
te e</w>
ck ing</w>
x i
st age</w>
hel p
&apos; I</w>
ver s</w>
P ubli
e ad</w>
Jun i</w>
Ver anstal
Nation al</w>
sich er</w>
P hi
ph one</w>
o c
ver ein
st et</w>
maj or</w>
re st</w>
mö glich
So zial
du e</w>
wr ote</w>
is ation</w>
ah len</w>
vi du
rei cht</w>
ach er</w>
d ungs
k lar</w>
J ames</w>
ra ther</w>
W is
e e</w>
u ally</w>
b ad</w>
Ber u
se qu
h of</w>
y m
sat z
so ur
d t</w>
J ap
for d</w>
des cri
k ämp
schließ lich</w>
la w
vol l</w>
mit ted</w>
N ot
s qu
b al
spiel er</w>
Arbei t
G oo
pla ying</w>
ch all
S an
c all</w>
elec tion</w>
att ack</w>
g lichen</w>
priv ate</w>
Bil d</w>
vi deo</w>
li sh</w>
Mö glich
le vel</w>
la un
z en
ff t</w>
eh em
lo oked</w>
p rü
foot ball</w>
m lich</w>
ver sch
rec ord</w>
neh mer</w>
ge kommen</w>
T ab
eu er</w>
un be
z ö
tei lt</w>
c ut</w>
wis sen</w>
den ten</w>
M us
R uss
c tor</w>
ex tre
I I</w>
pro du
fü r
Poli tik</w>
je der</w>
K las
P ap
Sch wei
pos sible</w>
di ed</w>
per forman
ne t
forder t</w>
Mär z</w>
d s
wer k</w>
ro le</w>
tu ally</w>
z usammen
inter est</w>
offici als</w>
leg al</w>
pro per
K öl
ell eicht</w>
y n
chil d</w>
l ose</w>
Au s</w>
3 .</w>
hel d</w>
St ates</w>
g lau
al ist
h on
kn app</w>
cu stom
stie g</w>
auf ge
hal t</w>
en jo
ear lier</w>
Re g
le ar
g lob
finan cial</w>
B y</w>
Ok tober</w>
S il
vi ol
m et
on g
Merk el</w>
200 7</w>
af f</w>
Be g
ru p
sum mer</w>
Ein satz</w>
y al</w>
li cht</w>
y si
J ul
ander s</w>
m ul
ü ch
3 2</w>
si tu
str ong</w>
wh ite</w>
zu letzt</w>
with in</w>
Ar t</w>
Kran ken
B ru
sel ves</w>
stell te</w>
str y</w>
z te</w>
D ec
sp ok
setz ung</w>
com peti
y ers</w>
In nen
Ver k
Au ßen
Ch el
P lan
n u
führ ung</w>
F est
en ded</w>
re si
fin i
An geb
di t</w>
f lu
der ed</w>
Wh ile</w>
or der</w>
al ong</w>
d on
Zei t
me t</w>
j un
f al
Mar ch</w>
resu l
c las
o d</w>
t ou
m al
op s</w>
s ent</w>
Par t
ah ead</w>
S im
U m</w>
zah len</w>
ein ander</w>
In stit
El tern</w>
mitt el
ac ks</w>
Or t</w>
nat ürlich</w>
f en
de u
ol l</w>
f ung</w>
I de
re co
zei gen</w>
G ruppe</w>
Fran ce</w>
o thers</w>
Spiel er</w>
Ta gen</w>
mom ent</w>
h il
d u</w>
Hei m
K ün
Zu sch
kommen den</w>
ä ischen</w>
J er
b un
D en
w us
z entr
N icht</w>
om y</w>
c ost</w>
Ge f
ist an</w>
fri ends</w>
ti ker</w>
f ar
sti c</w>
gef ähr
E R
f an</w>
reve aled</w>
gen de</w>
proble m</w>
am p</w>
lan g
ex ecu
rep res
Par tei</w>
D ann</w>
d ress</w>
ad v
fall en</w>
schaf ts
ne ar</w>
De z
an aly
r än
ne ben</w>
ins gesamt</w>
me ans</w>
at e
e hr
c al
Zu kunft</w>
sch wer</w>
ch ance</w>
a il</w>
Poli zei
p ost</w>
Chri stian</w>
fo c
ter m</w>
j ün
car eer</w>
st ers</w>
T at
Is la
de shal
Jul i</w>
b an</w>
deshal b</w>
B lick</w>
3 3</w>
en zen</w>
n te</w>
zei t
spok es
s ha
k ind</w>
m y
m m</w>
th y</w>
B ot
lea der</w>
Universi ty</w>
li st</w>
it ing</w>
r ates</w>
al te</w>
un sere</w>
Entschei dung</w>
out side</w>
ben ef
s ci
Americ a</w>
st rei
Lab our</w>
Jun e</w>
st on</w>
K li
gen au</w>
ch ief</w>
lie ß</w>
hist ory</w>
ste ad</w>
pa ir</w>
er halten</w>
e di
compani es</w>
D ollar</w>
Ö ster
ec tion</w>
part ment</w>
tr au
diff ic
indi vidu
konn ten</w>
no thing</w>
in ci
inter nation
a de
Premi er</w>
f s</w>
Geor ge</w>
ti ger</w>
li e</w>
Le hr
ex pla
Punk te</w>
su ch
M et
est er
ni mmt</w>
4 .
as ser
kur z</w>
Wo chen
S ar
i eren</w>
ur en</w>
lin ge</w>
h nach
eh er</w>
mo v
19 6
f ood</w>
Janu ar</w>
ris k</w>
M ili
T ür
ev ent</w>
s ätz
b ür
p ati
o w</w>
arbei tet</w>
star k</w>
ri es</w>
i denti
lar ge</w>
ini ti
Kö ni
St o
Dur ch
pri ce</w>
S U</w>
V ehicles</w>
se ven</w>
l an</w>
Dez ember</w>
ap er</w>
C lu
us er</w>
H ier</w>
an ti
N ur</w>
eig n</w>
teil te</w>
spre chen</w>
sp richt</w>
gele gt</w>
mar k</w>
Ne w
ü b
i or</w>
sch wi
pot enti
off er</w>
ter t</w>
stan den</w>
z um
6 .
No w</w>
zu vor</w>
ab ri
ter e</w>
3 ,
d ent
av ail
be au
ell s</w>
U l
F A</w>
sto p</w>
ol a</w>
h osp
mehr ere</w>
bor n</w>
rü ck
sho ws</w>
Mitarbei ter</w>
wer k
ma kes</w>
tr a</w>
lich es</w>
Erfol g</w>
g ers</w>
coun tries</w>
is mus</w>
ec i
re st
sc re
Mar i
ci l</w>
k in
announ ced</w>
7 .
ro r</w>
Br and
so zi
sh ort</w>
weiter en</w>
direc tor</w>
be tri
g ress</w>
c aus
gan gen</w>
a mi
ra ce</w>
ran ge</w>
am ent
lea ve</w>
ser vices</w>
pa id</w>
st ory</w>
p at
Chel sea</w>
ie ty</w>
rie b</w>
sch ung</w>
lei ch
dam als</w>
Wir tschafts
bo ard</w>
W at
any thing</w>
th ern</w>
ger ich
m ot
F ren
Ne ws</w>
rau m</w>
as se
b asi
rela tion
Kil ome
M ül
f elt</w>
L it
mili tary</w>
cl os
h aup
mar kt</w>
gegen über</w>
g res
l ungs
t a</w>
G ri
mor ning</w>
issu e</w>
B ad</w>
se x</w>
conc ern
W ett
B BC</w>
Qu e
mä ß
b ul
in si
tur ned</w>
ch ampi
Gä ste</w>
tra di
st ance</w>
sig n</w>
n ä
qu ali
St ate</w>
si on
oo t</w>
a gement</w>
ol s</w>
W a
D at
j e</w>
müs se</w>
V o
ab ly</w>
dau ghter</w>
D eb
R ah
mei sten</w>
Di es</w>
rec ently</w>
Gr und</w>
h y
some one</w>
mit tag</w>
On line</w>
f unk
w on
Sch ule</w>
be s
ad s</w>
dar über</w>
wie der
z z
n ut
F ach
- -
ic al</w>
unter stütz
Jah res</w>
ber ger</w>
a di
wh ose</w>
ti sch</w>
Berlin er</w>
tur n</w>
ing s
2 8
kl einen</w>
k ar
re li
wa gen</w>
v ote</w>
be stä
contro l</w>
bili ty</w>
resu lt</w>
ali si
ge ts</w>
H otel</w>
ei ght</w>
ke ep
h us
si eben</w>
go al</w>
zu dem</w>
kill ed</w>
h under
g ol
m ing</w>
Ma il</w>
letz te</w>
o cc
Er mitt
c anc
ver letzt</w>
I ra
t or
was n</w>
Don ald</w>
vi a</w>
f ass
h oh
J ohn
s le
ni fic
M ur
Gemein de</w>
5 .
A N
Män ner</w>
Deut sche</w>
Prä si
ani sche</w>
par ents</w>
0 ,
D er
M ag
W hi
bec ame</w>
s ent
r o</w>
Ver kehr
h ie
ma ß
ob s</w>
m as
hop e</w>
st aff</w>
Au to</w>
poli cy</w>
er sch
ri d</w>
en erg
fi ght</w>
at ors</w>
a w
St .</w>
ess es</w>
9 .
P lat
g art</w>
experi ence</w>
eig entlich</w>
con fir
ga ve</w>
ful ly</w>
H af
P ra
Bei m</w>
c ally</w>
H an
l len</w>
curr ent</w>
ge setzt</w>
in ge</w>
F ans</w>
L ast</w>
sug gest
wal t</w>
sur pri
em ents</w>
contin ue</w>
par ed</w>
K olle
wee k
at temp
plan s</w>
j ährigen</w>
econo mic</w>
ne w
off ice</w>
opp ort
I S</w>
ehem ali
Z ahl</w>
bre ak</w>
d ing
b ook</w>
3 4</w>
H oll
c s</w>
hei ten</w>
ne c
desp ite</w>
R ad
gen heit</w>
Wei hnach
wor th</w>
ap e</w>
d ate</w>
en ces</w>
tei lung</w>
F eh
dat a</w>
vi c</w>
avail able</w>
su sp
Russ land</w>
Rich tung</w>
vi ct
i en</w>
Z entr
al o
Al ler
es sen
re gel
da gegen</w>
zu folge</w>
ul arly</w>
E R</w>
fe at
Par k</w>
mo der
happ y</w>
si schen</w>
H aus
vor ge
fir e</w>
Regi on</w>
ot os</w>
pa ar</w>
3 6</w>
se um</w>
wirk lich</w>
ill s</w>
Phi li
C lin
Australi an</w>
N acht</w>
H inter
ge worden</w>
Inform ationen</w>
Frü h
sh are</w>
D ra
ne ut</w>
Par l
n a</w>
beg an</w>
sch uss</w>
b ung</w>
A T
qu ite</w>
Hal b
proc ess</w>
gef unden</w>
P i
H i
z us
Janu ary</w>
Sü d
St ar
a ver
Unter stütz
s ön
Vol ks
äch lich</w>
S or
je wei
sing le</w>
performan ce</w>
me eting</w>
me as
ho wever</w>
we b
12 4
stand ing</w>
ver tre
Stutt gart</w>
Ber n
Sch n
ne l</w>
sho wed</w>
6 .</w>
äu ß
ck et</w>
St ein
m ess
ma chte</w>
regi erung</w>
N ord
Ver ein</w>
trä ge</w>
nee ds</w>
or ig
Whi te</w>
fahr er</w>
w and
d y
u ation</w>
ge ber</w>
we hr
inn er
up s</w>
Champi ons</w>
we st
öl k
mö chte</w>
ali tion</w>
schä tz
c y
Mitglie der</w>
mo ved</w>
tra ining</w>
ac tually</w>
g le</w>
k ul
appe ared</w>
zi g</w>
wech sel
sch o
gr ü
p assi
dien st</w>
Russi a</w>
D et
amp le</w>
st ens</w>
ar en</w>
W ür
em o
an e</w>
il le</w>
every thing</w>
hus band</w>
lo c
kl ag
spo li
S ome</w>
si l
stell er</w>
as y</w>
offici al</w>
ter in</w>
Ger many</w>
rit t</w>
B is</w>
Pro gramm</w>
re qu
lin es</w>
E v
stu dy</w>
R au
ch s
am o
s eines</w>
ess or</w>
E s
econ omy</w>
em and</w>
Fil m</w>
en ter
pro gram
Sch au
Vi er
indu stry</w>
ei st
Ch in
No t</w>
er inn
Sicher heits
n ation</w>
wir tschaf
J etzt</w>
C amer
2 7
W asser
Febru ar</w>
supp or
R ob
cover ed</w>
I S
buil ding</w>
F ör
ell en
ler in</w>
wi esen</w>
zeich net</w>
di gung</w>
us h</w>
lätz e</w>
av y</w>
spro chen</w>
da m</w>
co ach</w>
c au
Fren ch</w>
b om
S au
k ir
Isra el</w>
in k
con fi
cer tain
sich tlich</w>
rei che</w>
je den</w>
de ten</w>
M as
D ort</w>
z ir
Ko sten</w>
te m</w>
&# 124
&#124 ;</w>
fer ence</w>
hu ge</w>
to wn</w>
es p
sp ent</w>
be sten</w>
tech n
m el</w>
he art</w>
Musi k
on al
kl eine</w>
li gen</w>
questi on</w>
O c
W ährend</w>
re f
ne u</w>
dest ens</w>
w inning</w>
R olle</w>
rele ased</w>
Sel bst
der al</w>
ff er</w>
Zu dem</w>
g ran
tu res</w>
them selves</w>
200 6</w>
E x</w>
dar an</w>
An ge
ma in</w>
Af gh
minist eri
Schü ler</w>
er neut</w>
D el
G ast
berich tet</w>
K e
k tor</w>
D P</w>
u es</w>
w es
hand elt</w>
ot t</w>
Stre et</w>
Sp itz
Ro bert</w>
el te</w>
sta y</w>
k amen</w>
N utz
Bür ger</w>
wi de</w>
S G</w>
vi er
W et
Beh ör
run ning</w>
pro gra
S ou
en sive</w>
w th</w>
L ig
lat est</w>
Entwick lung</w>
j ury</w>
Ho w</w>
ta kt</w>
ori ties</w>
0 .
ab o
se ems</w>
ti gte</w>
ro ad</w>
Sp ort</w>
k reis</w>
ation s
l ands</w>
I h
Ju ly</w>
haup t</w>
5 5</w>
erwar tet</w>
ad a</w>
be tei
P ort
f ern</w>
situ ation</w>
ap poin
wich tig</w>
Hö he</w>
Som mer</w>
me ter</w>
O f</w>
Grü nen</w>
W ahl</w>
at tra
Scot land</w>
Frankfur t</w>
W asser</w>
den ken</w>
gen u
se cre
N amen</w>
kom ple
h äl
B ahn
sch war
Ab end</w>
Ar sen
Viel e</w>
M ie
as k</w>
äh n
wh ole</w>
ich ten</w>
ni e
N un</w>
every one</w>
c ir
b rou
gemein sam</w>
3 00</w>
e qu
diffic ult</w>
pro mis
K or
fre i</w>
ver tei
t ur</w>
person al</w>
I hre</w>
sig nific
fi c</w>
aga z
in king</w>
ma in
li es</w>
Berei ch</w>
r or
su per
ar ti
z er
Ch anc
ho ch
B lo
Proble m</w>
N ic
Bundes liga</w>
do m</w>
Proble me</w>
inn t</w>
hum an</w>
b att
f y</w>
S at
re search</w>
char ac
b ut
rich tig</w>
rä um
bis lang</w>
bab ly</w>
tot al</w>
wal d</w>
jun ge</w>
d get</w>
Steu er
con su
Th er
S C</w>
so on</w>
sch ef</w>
in for
Li ver
ri se</w>
tig keit</w>
c op
Th ese</w>
wor ks</w>
dür fen</w>
vi cti
al ist</w>
Geb äu
f ör
In s
nee ded</w>
speci al</w>
z äh
m in</w>
m es</w>
R h
se s
ide a</w>
In du
ci es</w>
H off
sp ann
d res
s ou
rupp en</w>
ri g
e ch</w>
3 8</w>
f it</w>
tiv ely</w>
K reis
sh ing</w>
di ge</w>
Inv est
Besu cher</w>
quar ter</w>
R el
big gest</w>
Pri v
B üh
wan ts</w>
f o</w>
ung sp
U kra
g a</w>
Fahrzeu ge</w>
hist ori
stru gg
sy st
in ju
pres s</w>
Poli ce</w>
K ore
b as
schein t</w>
Hil fe</w>
claim s</w>
am t
relation ship</w>
T err
L os</w>
Dec ember</w>
v an</w>
pre t
pro pos
Au ßerdem</w>
u li
Sprech er</w>
rie f</w>
üs sel
Sp r
oh n</w>
Goo gle</w>
D r.</w>
os en</w>
lan gen</w>
g ner</w>
Tit el</w>
ei ther</w>
li ving</w>
9 .</w>
E is
en ge</w>
bei de</w>
gro wth</w>
incre as
invol ved</w>
le ading</w>
am eri
Mit te</w>
ph ysi
k rie
we g
prof essi
re qui
M utter</w>
hän gi
S mi
si mi
spra ch</w>
c ru
Ges und
her r
Ma ß
rit te</w>
M r
sch utz</w>
Min ute</w>
de mon
di ger</w>
C SU</w>
K ü
3 7</w>
A cc
Mar k</w>
K i
ri ghts</w>
Liver pool</w>
claim ed</w>
lon ger</w>
p ack
8 .
do cum
Ge schä
wr ong</w>
t ell</w>
lei st
recei ved</w>
K unden</w>
B on
s weise</w>
pres sure</w>
i zi
E d
li ves</w>
Bre x
schaff en</w>
L eute</w>
in o</w>
di gte</w>
unser er</w>
b rü
grap h
on ed</w>
schaf t
th o
evi dence</w>
Musi k</w>
we gs</w>
der ungen</w>
b rei
dru ck</w>
l auf</w>
0 5</w>
Beg inn</w>
t an
fahr t</w>
4 8</w>
stän dig</w>
h old</w>
Sp ar
m as</w>
musi c</w>
li ed</w>
am ten</w>
L age</w>
V f
g ni
tre at
erfol g
H ein
Aller dings</w>
lli g</w>
ra m</w>
M ex
p ie
win ner</w>
Ju sti
ver stän
D ro
all ein</w>
t able</w>
setz te</w>
in al</w>
week end</w>
pro bably</w>
p e</w>
ord in
sch ütz
A ra
per f
Fra gen</w>
peri od</w>
g um
n atur
Al le</w>
in zwischen</w>
execu tive</w>
zei tig</w>
f and</w>
gu e</w>
p ul
P ak
vict ory</w>
wor ked</w>
par ti
d lichen</w>
se m
inclu de</w>
inde st</w>
for ni
oper ation</w>
Ü ber</w>
ent sprech
ag ing</w>
Go vernment</w>
E mp
b us</w>
Proje kt</w>
E m
Ergeb nis</w>
Ham burg</w>
Ir an</w>
ho ch</w>
Clin ton</w>
se tz</w>
ge be</w>
Kilome ter</w>
H ä
ein igen</w>
so genann
energ y</w>
z ü
Jo urn
l auf
über ra
Führ ung</w>
ali forni
woh ner</w>
it ze</w>
t wi
Z wei</w>
br ing</w>
H and</w>
ex ist
ma ch
O s
Chri s</w>
rich ten
proble ms</w>
P reis</w>
he ard</w>
m ag
h öh
gri ff</w>
Staats an
ne arly</w>
beson dere</w>
T al
berich tete</w>
shar es</w>
E U
tr otz</w>
Fl ori
sp ä
ta x
resul ts</w>
bie ten</w>
Or ts
lu e</w>
is ing</w>
sen se</w>
ei l</w>
vie ws</w>
M s</w>
sch utz
tal k</w>
for ce</w>
visi t</w>
any one</w>
t au
m ur
Camer on</w>
ber u
Mad rid</w>
m ung</w>
g ruppe</w>
E hr
em pf
Inter national</w>
H en
Fran k</w>
amm lung</w>
o ben</w>
aus zu
ach ie
si a</w>
gu ten</w>
tre ffen</w>
de ter
nah m</w>
prä sen
M ach
bie tet</w>
f et
häl t
high er</w>
ats ächlich</w>
gen s</w>
zwei te</w>
s we
eben so</w>
gra tion</w>
Un ter</w>
geb aut</w>
hie ß</w>
re ly</w>
ho li
mat ter</w>
D ort
issu es</w>
glob al</w>
C ap
ob ach
incre ase</w>
H er</w>
7 5</w>
da cht</w>
P an
mi schen</w>
k m</w>
I hr</w>
st opp
Re gel
F ort
T ouri
4 2</w>
vi sion</w>
eigen e</w>
Ein zel
p ort
v ent
le bt</w>
G rie
loo ks</w>
4 ,
ne ten</w>
ur ch</w>
wel che</w>
k ung</w>
0 ,000</w>
mo del</w>
co ver</w>
iel l</w>
ou l
ali siert</w>
ge führt</w>
inter view</w>
tik el</w>
th i
Ch ance</w>
bil dung</w>
ger icht</w>
an ten</w>
ig ung</w>
Sch u
Op en</w>
eri al</w>
4 4</w>
t ter
Mül ler</w>
Brex it</w>
hä u
Par ty</w>
Wochen ende</w>
pri ces</w>
d d
ti gung</w>
St ar</w>
fi gh
om s</w>
r ussi
min destens</w>
o ur
st ant</w>
wer t</w>
kün ftig</w>
m ate</w>
ut s</w>
wei sen</w>
Jah res
b s
Wol f
ot z
h aps</w>
Regi er
Z wi
Kri tik</w>
beton te</w>
com mit
can not</w>
ko sten</w>
happ ened</w>
B ahn</w>
ou ldn</w>
Sch i
ad minist
Russi an</w>
vi elleicht</w>
Su per
sol che</w>
fin ale</w>
Pres se
schie den</w>
P ati
ver än
bo ur
Oc tober</w>
pp ing</w>
S ig
v ari
P ut
au ft</w>
av o
vi ron
3 9</w>
ex ample</w>
v ölk
p unk
b a
e duc
stimm ung</w>
O R
fre u
x im
e z</w>
O N
en nen</w>
T ot
G ei
Ges ellschaft</w>
con tri
Da y</w>
bu y</w>
m und</w>
is n</w>
ein zu
R y
ment al</w>
sp ace</w>
Aut o
th ous
Sp ani
con di
är en</w>
gener al</w>
4 1</w>
re gu
b ly</w>
provi de</w>
ac y</w>
g one</w>
Ä r
u lation</w>
an ge</w>
an o</w>
ti tle</w>
brou ght</w>
h otel</w>
ge sagt</w>
an er</w>
K er
Co urt</w>
ra di
enn t</w>
mitt ei
pp e</w>
Publi k
B as
Ver hand
wal tung</w>
V ic
ver ur
Dan iel</w>
gen e</w>
M ein
K ör
f em
kri ti
g in</w>
p ol
T ro
mi e
v ö
m ind</w>
O st
k al
n om
H ans</w>
Person en</w>
ver ein</w>
si tion</w>
P u
E li
b are</w>
st in</w>
Medi en</w>
20 00</w>
zei gte</w>
St art</w>
w u
lie b</w>
aver age</w>
f lä
H um
mei ster
rep orts</w>
pf lich
W inter
P ot
4 3</w>
can did
gh t
St ell
ch ef</w>
cro w
Spiel e</w>
ill a</w>
zus ätz
Ver fü
D om
H ot
un ded</w>
de cl
comm unity</w>
r ö
p m</w>
Sit uation</w>
Unterstütz ung</w>
Ju li
S ec
M äd
un e</w>
erst mals</w>
n y</w>
0 s</w>
Jap an</w>
O b</w>
B ir
z es</w>
Frank reich</w>
ger ech
schl ag
c le</w>
politi schen</w>
d aten</w>
rei sen</w>
tri ed</w>
Er fahr
an gen</w>
c ement</w>
dür fte</w>
potenti al</w>
cap ital</w>
b ald</w>
wor ds</w>
off en</w>
S ha
qu ick
bo t</w>
re ach
per sön
C al
v ely</w>
gro ß</w>
u g
m eine</w>
m ar</w>
er weise</w>
par k</w>
lei cht</w>
ab hängi
C ent
zi eren</w>
Sp ra
co sts</w>
ati ven</w>
eci ally</w>
5 .</w>
chang es</w>
No ch</w>
n ö
in side</w>
gen cy</w>
ver antwor
sel l</w>
re du
lei ter</w>
Gener al</w>
Eng lish</w>
Da zu</w>
accoun t</w>
seri ous</w>
ta kes</w>
Arsen al</w>
esp ecially</w>
läu ft</w>
im medi
Sch on</w>
o il</w>
sp ending</w>
Bar cel
st ur
simi lar</w>
L ou
gan ze</w>
pa y
Rech ts
custom ers</w>
fra gen</w>
Re al</w>
Ma y
m os
S an</w>
sal es</w>
H om
Pat ri
str on
Kün st
M ehr</w>
weiter hin</w>
do or</w>
l oss</w>
ter ror
g liche</w>
le gt</w>
Tech ni
cl ass</w>
se em
n ern</w>
lo wer</w>
la y</w>
200 5</w>
ar r
G et
cent re</w>
fa v
Op fer</w>
T or</w>
su it</w>
qu ality</w>
hö ch
K ind</w>
simp ly</w>
W aff
P as
St ur
den e</w>
0 8</w>
st yle</w>
al though</w>
Kl ein
t we
um mer</w>
hosp ital</w>
sy ch
groß er</w>
succ ess
wei ght</w>
b loo
st ation</w>
c lo
esti val</w>
no w
p it
g as</w>
ab li
E ig
re ti
ck y</w>
ck er
Tel ef
Sch ä
an im
n on</w>
Alex ander</w>
Clu b</w>
ck en
j ungen</w>
an while</w>
f ru
B ü
au lt</w>
D R</w>
n ten</w>
Har ry</w>
af ter
n ungen</w>
Smi th</w>
di schen</w>
dire kt</w>
Er st</w>
über haupt</w>
V ir
ür z
in t
Mar kt</w>
F äl
gi ving</w>
ke i</w>
sig ned</w>
P et
V ater</w>
fail ed</w>
Sta aten</w>
Barcel ona</w>
A P</w>
M ess
k ampf</w>
Wir tschaft</w>
c tions</w>
posi tive</w>
exp lo
4 9</w>
n ine</w>
sei ts</w>
Ver antwor
S itz
P il
M om
über zeu
curr ently</w>
an ni
gir l</w>
tu red</w>
we st</w>
Verkehr s
G eri
sh ire</w>
wei le</w>
öff net</w>
em e</w>
Öster reich</w>
au tom
9 9</w>
stit u
h an
ant ly</w>
h tt
el ing</w>
Angel es</w>
C re
6 5</w>
g yp
ung er</w>
lin ks</w>
Ger man</w>
oo ds</w>
go als</w>
be at</w>
b ing</w>
L et
com pla
e b</w>
z ep
re ason</w>
k ran
ne g
proper ty</w>
me an</w>
G al
deci ded</w>
gesch ri
tra de</w>
ste p</w>
K ampf</w>
In stag
de fe
mis s
G est
te ams</w>
C ri
jün g
ver li
T om</w>
K reis</w>
K al
d rei
ir gend
spokes man</w>
Andre as</w>
Tim es</w>
in ation</w>
le vel
go es</w>
ester day</w>
John son</w>
ir t</w>
lea ders</w>
amer a</w>
g old</w>
R est
stat t
bo y</w>
ti erte</w>
Län dern</w>
form ed</w>
zah l</w>
Bil der</w>
investig ation</w>
Ö ff
ch ers</w>
ter ms</w>
mit tel</w>
ik a</w>
z a</w>
an zu
p lus</w>
bab y</w>
gesch ä
Kom mun
Kan did
a ther</w>
wor t</w>
K anz
Wis sen
Wi en</w>
bet ro
Dru ck</w>
da her</w>
re ad</w>
part ner</w>
Instag ram</w>
allo wed</w>
le h
Ges amt
rema ins</w>
zw öl
Mo d
bar en</w>
sch e
Län der</w>
b lick</w>
abo ve</w>
wat ch</w>
4 7</w>
App le</w>
an k
Geri cht</w>
re u
al ing</w>
5 ,
Köl n</w>
S and
p an
li g</w>
C H
sen ior</w>
ati ves</w>
iel le</w>
Febru ary</w>
ma y
bes ser
ver hin
L aut</w>
f ell</w>
d ney</w>
Lig a</w>
st ars</w>
b lieb</w>
Mon ate</w>
Kon tro
eh en</w>
lat ed</w>
Kin dern</w>
offen bar</w>
Kre u
sp ruch</w>
Kul tur
s inger</w>
us sion</w>
ger e
cri sis</w>
so li
Ver tei
k or
in sur
Mus li
k new</w>
are as</w>
ge setz
be dro
N eben</w>
Flücht linge</w>
fran zö
Tra in
D ok
ein zi
sti g</w>
Sicher heit</w>
indu stri
ge k
S T
char ge</w>
6 ,
l aufen</w>
j ah
at ur</w>
N atur
verl oren</w>
wor kers</w>
I l
h o</w>
ex tra</w>
politi sche</w>
Kop f</w>
Dies er</w>
mus sten</w>
me et</w>
in i</w>
O ur</w>
ameri k
unter schie
Afgh an
F DP</w>
m ern</w>
re as
succ ess</w>
4 6</w>
h our</w>
E ven</w>
S wi
b la
ant i</w>
V al
Sp a
st es</w>
for eign</w>
el e</w>
str eng
tag s
ci vi
otz dem</w>
größ ten</w>
gr und
L es
it al
den k
min ute</w>
c ast
frü h
Sec re
ch it
x ed</w>
Bu ch</w>
m ut</w>
for ced</w>
S eine</w>
ar re
E ar
t ori
Kir che</w>
d ritten</w>
regi on</w>
us es</w>
hand s</w>
ad vi
brau cht</w>
se par
Ukra ine</w>
ler weile</w>
ct ors</w>
Pr ince</w>
be sch
4 00</w>
produc ts</w>
Be zir
zun eh
Verfü gung</w>
previ ous</w>
W eb
ge ord
S ein</w>
zum indest</w>
all s</w>
t our</w>
develop ment</w>
ent fer
Pri me</w>
b ahn</w>
m ine</w>
Rah men</w>
a i</w>
f ach
Fin an
acc ess</w>
Er n
ver sion</w>
Ch ef
d nis</w>
cer tain</w>
tei le</w>
in tel
fir m</w>
infor mi
ali sten</w>
l ling</w>
St ro
descri bed</w>
jo urn
B ran
mo d
fig ure</w>
continu ed</w>
geb iet</w>
ter s
k tionen</w>
O li
s a</w>
partic ularly</w>
Wett bewer
et t</w>
jewei ls</w>
Al t
Gemein der
at te</w>
e asy</w>
im mer
gli ed</w>
J ones</w>
appe ar
1 1.
lea ving</w>
i an</w>
N a
ur th</w>
4 .</w>
serv ative</w>
W ach
ger t</w>
Feuer wehr</w>
U R
denti al</w>
tru e</w>
mi e</w>
t sch
Vorsitz ende</w>
pre si
Pe ople</w>
wur f</w>
Mäd chen</w>
el se</w>
Poli tiker</w>
br ingt</w>
Ver tre
As soci
gew innen</w>
b auen</w>
in tro
duc ed</w>
spiel sweise</w>
c ause</w>
Fre u
cas h</w>
sho p</w>
j obs</w>
5 2</w>
in stead</w>
pop ular</w>
in come</w>
Christ mas</w>
A tt
ru les</w>
b ruch</w>
D aten</w>
ann t</w>
sto ck</w>
help ed</w>
sich ts</w>
ver öffent
schi ed</w>
z one</w>
0 4</w>
po wer
bre ak
certain ly</w>
rema in</w>
so fort</w>
val ue</w>
Ta ges
u el</w>
ar di
ver z
Rich ard</w>
cas es</w>
Am ts
li mi
ad di
mi d</w>
W ieder
app ed</w>
Unter such
Gel d
Wolf gang</w>
gesch aff
Nach richten</w>
t ac
c ast</w>
erz ählt</w>
e qui
f am
si bility</w>
est im
in te
gehör en</w>
in z</w>
pr os
ha ft</w>
en e
p ass</w>
krä fte</w>
Energ ie
sa ch
Kom mission</w>
c ts</w>
s l
zu frie
ig es</w>
Kun st
al er</w>
bo x</w>
fi g</w>
er reicht</w>
Z eu
si sche</w>
ra y</w>
C ro
. 30</w>
invest ment</w>
Z i
at eg
ell ed</w>
öh n
im pres
to wards</w>
T our</w>
Sei ten</w>
Kon kur
St äd
ig keit</w>
t n
rat s</w>
Ber icht</w>
spiel e</w>
ding ungen</w>
htt p</w>
sa che</w>
Ro yal</w>
sh ared</w>
man agement</w>
b a</w>
W oh
h ous
do w</w>
c r
scor ed</w>
C aliforni
schrei bt</w>
Bet ri
schlie ßen</w>
wich tig
ec tive</w>
go ti
R ot
W en
i erte</w>
hel fen</w>
D am
ab zu
In de
S ho
ten s</w>
Willi ams</w>
Th en</w>
p ick
stu dents</w>
n amed</w>
gro ups</w>
uni on</w>
rei ben</w>
be schäf
C amp
gu i
U N
stä d
de ad</w>
e x</w>
o de</w>
ge sehen</w>
Ver b
200 4</w>
führ te</w>
Z iel
o v
wach sen
trä gt</w>
Mar kt
To p</w>
chang ed</w>
opport unity</w>
man n
ver su
ger ne</w>
Que en</w>
in jury</w>
k unden</w>
w ün
in en</w>
Holl y
Vi deo</w>
ver sich
R E
w äh
treat ment</w>
Sch we
os sen
se y</w>
medi cal</w>
5 1</w>
E ast</w>
ha ir</w>
acc used</w>
et ed</w>
For m</w>
F er
li gen
progra m</w>
De partment</w>
techn ology</w>
fol gt</w>
Pf le
verb and</w>
buil d</w>
u ters</w>
K as
h ang</w>
thous ands</w>
Minist er
Republi can</w>
en ze</w>
under stand</w>
ähri ger</w>
we der</w>
Par tie</w>
Dis k
f la
h inter
questi ons</w>
ad es</w>
auth orities</w>
wis sen
pra cti
funk tion
l ab
lie f</w>
Angeb ot</w>
größ te</w>
do wn
Gro up</w>
stra i
o ber
k ept</w>
ent schieden</w>
shi ps</w>
am te</w>
Par k
P ost</w>
sig n
k ap
cou ldn</w>
quick ly</w>
neu n</w>
au rant</w>
Afghan istan</w>
fa ir</w>
imp act</w>
M ac
um p</w>
en viron
dru g</w>
web site</w>
be ha
ih res</w>
we gung</w>
cla im</w>
con duc
Bes on
Möglich keit</w>
si c</w>
sp or
r aten</w>
Chin ese</w>
ä ische</w>
C el
ur t
0 7</w>
inclu ded</w>
c iety</w>
ar m</w>
publi shed</w>
D em</w>
r an</w>
M ore</w>
w äl
di ent</w>
Tur ni
Sch ritt</w>
f tung</w>
0 6</w>
itä ten</w>
char ges</w>
berei ch</w>
pret ty</w>
inde pen
M P
th ro
Kar l</w>
ev ents</w>
N ä
it self</w>
d ler</w>
5 4</w>
famili es</w>
Dur ch</w>
ber eit</w>
y a</w>
5 3</w>
erh öh
y n</w>
st a</w>
mess age</w>
f ro
rele ase</w>
D opp
on ds</w>
acc ep
st ro
t ür
Weihnach ts
Fol ge</w>
S how</w>
ti ves</w>
L a</w>
R unde</w>
ven ue</w>
amo unt</w>
il ed</w>
I ni
R aum</w>
si li
sor gen</w>
Dort mund</w>
ähr t</w>
Des halb</w>
h ost</w>
at er
R ett
bil d</w>
tra ck</w>
l ern</w>
reco gni
Lan des</w>
Re k
fe deral</w>
A L
h aus
dan ach</w>
op ening</w>
ell a</w>
war t</w>
L auf
pro ject</w>
E ri
Ur lau
Nach bar
condi tions</w>
Californi a</w>
ander er</w>
de fin
ac tivi
ph oto
fo urth</w>
bei spielsweise</w>
el s
sel bst
an te</w>
K im</w>
li ament</w>
Terr or
nach dem</w>
ac t
w olle</w>
Be völk
zo g</w>
ger in</w>
produc tion</w>
EU R</w>
J ür
le s
Ber g
G ö
spe k
0 1</w>
for ces</w>
t end</w>
ic o</w>
canc er</w>
ein s</w>
c ard</w>
dou ble</w>
ex ten
D F
hi on</w>
Fir st</w>
f tw
Bro wn</w>
K lin
ein zel
stei gen</w>
europ äischen</w>
Kra ft</w>
ent de
H ause</w>
fäl lt</w>
Ar tikel</w>
K ing</w>
d liche</w>
an gel
A S
zwöl f</w>
vor sitz
gerech net</w>
Fahr er</w>
dar unter</w>
5 6</w>
A sy
Be wer
je de</w>
J en
F unk
gro wing</w>
ey e</w>
att acks</w>
tra vel</w>
K ab
mo bili
lie ß
bra chte</w>
confir med</w>
T wo</w>
ne e</w>
amp f
respon se</w>
ch er
zie ht</w>
s age</w>
pl om
t atsächlich</w>
stat es</w>
T est</w>
Büh ne</w>
Gesprä ch</w>
8 .</w>
s n
7 ,
wei s</w>
k ü
Stra f
Wei l</w>
ail s</w>
m uni
To d</w>
k el</w>
Ver brau
re ag
s ü
9 ,
pas sen
B ab
glei chen</w>
en det</w>
sur vi
be wus
Y e
äl fte</w>
ministeri um</w>
ei m
t ner</w>
re ality</w>
Sta at</w>
hol en</w>
tig ten</w>
wal tschaft</w>
son st</w>
Da ily</w>
happ en</w>
inter est
m and
wor d</w>
po sted</w>
r ap
e asi
ven tion</w>
schließ end</w>
ü bri
re pe
sich ts
Re cht</w>
wi es</w>
ann te</w>
si eren</w>
ju sti
di n</w>
pic ture</w>
1 50</w>
previ ously</w>
cre ate</w>
c oll
hin aus</w>
sor gt</w>
Son der
competi tion</w>
Stra ßen
d äch
nei gh
nec ess
Holly wood</w>
R ein
Ste fan</w>
Wi der
ftw are</w>
St at
al ty</w>
7 .</w>
To chter</w>
ad mitted</w>
M au
p et
Tür kei</w>
di sk
d ding</w>
Zei ten</w>
al low</w>
rich tung</w>
nie der
D r</w>
J ährigen</w>
I re
go vern
T rau
U N</w>
P en
evi sion</w>
s lo
signific ant</w>
y esterday</w>
Lu ft
Sch al
R ath
pr in
mis sed</w>
lie ßen</w>
eri gen</w>
vö llig</w>
B ul
Minister prä
gl ück
br and</w>
S icht</w>
Al ter</w>
A l</w>
län gst</w>
ver fü
mi les</w>
5 8</w>
ne goti
Her r
ther ap
Sy dney</w>
5 9</w>
neh men
pp en</w>
n it
Bunde stag
no v
9 5</w>
sour ce</w>
st off
plan t</w>
Flug ha
Exper ten</w>
ic ally</w>
Fir ma</w>
sta at
Ire land</w>
stell ten</w>
genu g</w>
5 7</w>
ch air
st am
K en
Christ op
ev ent
ph oto</w>
inner halb</w>
it a</w>
Jahr hunder
n d</w>
mo ving</w>
deu tet</w>
S ir</w>
comm on</w>
län der</w>
atten tion</w>
Angel a</w>
reli gi
Ver gleich</w>
ci a</w>
or ds</w>
ot ing</w>
eb s
St ück</w>
ch ner</w>
U S
K oh
cra tic</w>
ser ved</w>
t an</w>
üs se</w>
sch te</w>
O N</w>
con ference</w>
ath le
spi ri
contra ct</w>
cre dit</w>
Gebäu de</w>
en cour
I C
Coun cil</w>
er reichen</w>
jo ined</w>
Acc ording</w>
le ague</w>
t ation</w>
mäß ig</w>
us ers</w>
ge m</w>
exp ect</w>
Publik um</w>
Dem ok
Bundes regierung</w>
4 6
pla ced</w>
le sen</w>
C ra
T y
beg innt</w>
tri p</w>
sp rä
Ri si
Net z
V oll
di stri
com ment</w>
Sch ie
be stimm
end or
Wal es</w>
ei m</w>
geplan t</w>
fer enz</w>
di glich</w>
mö glichen</w>
Ini ti
olog ie</w>
buil t</w>
F al
foc us</w>
A mt</w>
ß er</w>
reg ul
b ran
ban ks</w>
hoh en</w>
Ser ie</w>
Co ach</w>
im mi
Lei p
ki ds</w>
h und
ich t
Ge gner</w>
unter wegs</w>
b um</w>
f el</w>
K ol
sa d</w>
tu al</w>
gel d</w>
R ed</w>
re fle
om en</w>
Bu ch
Aut os</w>
al es</w>
fig ures</w>
Dem oc
au ßer
stim men</w>
fi k
kon tro
wir tschaft</w>
w ollten</w>
he al
inci dent</w>
Put in</w>
gesch lagen</w>
mark ets</w>
follo wed</w>
F rom</w>
Z ahlen</w>
hau sen</w>
Behör den</w>
el ten</w>
zi l</w>
W ahr
st ood</w>
c ation</w>
K n
lat t</w>
ac king</w>
chall enge</w>
b at
el li
bi a</w>
geh end</w>
not wen
tri al</w>
o d
kt ur</w>
ab en</w>
poli tik</w>
ri age</w>
R am
sa fet
sk y</w>
s mo
b ill</w>
beh ör
re ach</w>
Gener al
ag s</w>
Ein en</w>
inf lu
safet y</w>
st ür
belie ved</w>
S ohn</w>
hör en</w>
nut zen</w>
er er</w>
Jür gen</w>
A tom
E ben
Regi erungs
m .</w>
j ects</w>
ord nung</w>
z ens</w>
so zial
A c
I mp
con ne
am ing</w>
wal k</w>
O per
Sim on</w>
s w
caus ed</w>
S z
A F
Sais on
dra mati
spe ech</w>
pati ents</w>
Lö sung</w>
Kri se</w>
kün digt</w>
ser ve</w>
Mar ia</w>
L IN
ge wi
Ide e</w>
Kolle gen</w>
schnit t</w>
al one</w>
sa h</w>
Som mer
k i</w>
Me dien
le t
Sy stem</w>
pre di
e th
10 .
k ö
Er d
Sch le
S eb
ort ing</w>
müs sten</w>
sm us</w>
Mr s</w>
fin ally</w>
M ig
dig keit</w>
geh ö
an ne</w>
se em</w>
au di
end lich</w>
B all</w>
An aly
fol gen</w>
on s
Ser vice</w>
Sch wi
je dem</w>
S ter
lin ed</w>
call s</w>
ein gel
schrei ben</w>
H y
ju d
zi erung</w>
natur al</w>
fass ungs
off ered</w>
v ey</w>
organ i
Men schen
tal king</w>
H än
sc ene</w>
sex ual</w>
offic ers</w>
j ahr
mid dle</w>
C a
mor gen</w>
ti s</w>
f und</w>
to urn
agre ed</w>
G a
in st
Gr and</w>
en se</w>
ver se</w>
cul ture</w>
comm un
Konkur ren
k tions
E N</w>
H älfte</w>
Spitz en
be ein
St elle</w>
W ein
ol z</w>
U p
K h
Com mission</w>
Itali en</w>
seem ed</w>
n ungs
Mu seum</w>
s old</w>
verschie denen</w>
bu dget</w>
es sion</w>
ger u
Li ber
ch tet</w>
R ec
nis sen</w>
anc y</w>
J ack
C enter</w>
nä mlich</w>
Zusch auer</w>
zah lt</w>
Dem on
Win ter</w>
Be schäf
Grie chen
off ers</w>
tern ative</w>
spo t</w>
el a</w>
deta ils</w>
T äter</w>
G leich
wen ige</w>
Afri ca</w>
F I
ap par
Ma sch
t är
W ert</w>
Ju st</w>
H S</w>
ati c</w>
w en</w>
ist e</w>
brau chen</w>
op ti
d ated</w>
dra w</w>
2 6
sprech er</w>
par ts</w>
tal ks</w>
ge gangen</w>
ra d</w>
Wei se</w>
te dly</w>
min al</w>
strai ght</w>
gh tly</w>
Zusammen arbeit</w>
I tal
m ale</w>
A ir</w>
m ort
h eu
F ei
der er</w>
po or</w>
Fin ale</w>
success ful</w>
consi der
v is</w>
ach ten</w>
H eute</w>
G ut
H on
en ced</w>
Ge setz
re ta
t i</w>
ent ur</w>
sp end</w>
level s</w>
op h
pp er</w>
L ad
j ähr
verk ehr</w>
exp ec
be vor</w>
fäl le</w>
dar um</w>
comple te</w>
neu er</w>
nor mal</w>
administ ration</w>
tiv ity</w>
l led</w>
ä s
G or
A ma
Stu die</w>
Me anwhile</w>
v ent</w>
si ze</w>
de st</w>
Pf arr
bus in
de p
Flücht l
gir ls</w>
K ev
and a</w>
0 9</w>
Ver letz
gew onnen</w>
ad ding</w>
Ak ti
C N
pro ce
S har
com pared</w>
y ond</w>
zei ten</w>
Wohn ung</w>
on to</w>
Sch ließ
Mot or
di se
näch ste</w>
Bil d
Al so</w>
Sp ain</w>
B and</w>
j en
je des</w>
re lated</w>
Y et</w>
Famili en
el f</w>
R ö
be glei
S in
H anno
Dok um
Proz ess</w>
d ance</w>
spiel te</w>
Air port</w>
b es</w>
B A</w>
cri tic
E N
beha vi
klär ung</w>
appe ar</w>
Teil nehmer</w>
en burg</w>
de bt</w>
ga gement</w>
A G</w>
her self</w>
chall eng
be steht</w>
tro ub
O h
m agaz
per haps</w>
C ha
mar ried</w>
Da für</w>
lar gest</w>
ani a</w>
Indu stri
l lt</w>
gew ählt</w>
Geh eim
Ä n
pie ce</w>
Com p
eff ect</w>
opp ing</w>
d rü
dri ve</w>
frü her</w>
u red</w>
cho ice</w>
w ouldn</w>
tr at</w>
w ann</w>
st ück</w>
f ang
Bel gi
mov ie</w>
as soci
D ist
gen ie
St unde</w>
K r
Sach e</w>
mer k
A D
Z ur</w>
si tz</w>
bloo d</w>
em er
pri son</w>
Punk ten</w>
mein te</w>
gu n</w>
st ands</w>
A no
te xt</w>
ak er</w>
maj ority</w>
ent al</w>
gest ern</w>
Kl aus</w>
G old</w>
sh er</w>
Ch e
Ins gesamt</w>
it ali
Gra d</w>
Secre tary</w>
c tive</w>
ck te</w>
F ün
me an
0 er</w>
clu bs</w>
12 .
W ar</w>
8 ,
a der</w>
do g</w>
ter en</w>
bür ger
W erk
ac tor</w>
Ele k
ver sucht</w>
gew al
zeu g</w>
be tre
f ä
Kore a</w>
Klas se</w>
Joh ann
di sche</w>
Kon fli
cre ated</w>
Re uters</w>
An gst</w>
f ine</w>
ev ening</w>
st one</w>
Nä he</w>
ch mal</w>
ol der</w>
ol t</w>
sa fe</w>
Spiel en</w>
for ms</w>
Ital y</w>
dr än
str ateg
ann ual</w>
Scot tish</w>
Seb a
sp orts</w>
betei li
ver lassen</w>
ra ised</w>
viol ence</w>
ut zt</w>
ü r</w>
gef allen</w>
mar t
Sta at
D ri
Inter esse</w>
arri ved</w>
B ör
on ship</w>
ar a</w>
Kev in</w>
A p
Z e
et ten</w>
Nieder lage</w>
Sch wer
l ten</w>
deb ate</w>
M any</w>
ct ure</w>
auf zu
ti ful</w>
füh l</w>
da d</w>
Indi a</w>
D üssel
Gef ahr</w>
Fuß ball
cent ral</w>
200 3</w>
Syri a</w>
un ser</w>
schlä ge</w>
eri schen</w>
and al</w>
los en</w>
T ore</w>
schwer en</w>
we aring</w>
mitt lerweile</w>
z y</w>
star ting</w>
K lo
zufrie den</w>
Bevölk erung</w>
lau b
th an
ec ut
Mehr heit</w>
op ened</w>
re sear
t aus
L is
Ver trag</w>
Staatsan waltschaft</w>
K ath
Gu ardi
T ay
sto ß</w>
Ano ther</w>
fli ght</w>
ger ung</w>
appro ach</w>
po st
t on
T ier
tag abend</w>
li ber
em erg
St r
l ying</w>
T ie
Sch la
tel evision</w>
Wal d
Willi am</w>
ju dge</w>
act ress</w>
s in
com b
Mon at</w>
o p</w>
geschri eben</w>
w under
er y</w>
pen sion</w>
B en</w>
Au gen</w>
I s</w>
sp ot
Syri en</w>
w elt</w>
ig t</w>
B ig</w>
P rü
Prot est
vot ers</w>
ad ed</w>
fe eling</w>
in ts</w>
num bers</w>
B asi
Ge w
J ung
tion ed</w>
sch rieb</w>
Wh y</w>
v ement</w>
A ch
emplo ye
Mei ster
scho ols</w>
Bo den</w>
Americ ans</w>
Dies es</w>
F as
l o</w>
gew öhn
st ück
C lar
Sch ri
M y
ko sten
Krie g</w>
mul ti
gh out</w>
Mark us</w>
pre mi
mo dern</w>
s ort</w>
comm ents</w>
durch aus</w>
uni ties</w>
iel ten</w>
S än
se tt
ey es</w>
k ore
gel ö
alisi erung</w>
pres ent</w>
Fran c
Besu ch</w>
ho he</w>
d ul
h ü
i ed</w>
s .</w>
im age</w>
ing ham</w>
G las
forder te</w>
R ie
si erte</w>
retur ned</w>
G abri
ä m
holi day</w>
le ben
my self</w>
P op
ens ure</w>
stru ction</w>
im ag
A h
dr in
Ren nen</w>
tem per
wi sh</w>
st ran
öffent lichen</w>
u ri
appe ars</w>
Schl ag
ni ed
inten si
En d
A C
fu hr</w>
t ely</w>
V ie
sei te</w>
program me</w>
b lue</w>
welt weit</w>
dan ken</w>
E L
lo h
sy mp
hom es</w>
bro ad
ein ander
pas st</w>
Ver bin
K rä
Berei ts</w>
Inter view</w>
war um</w>
Tu be</w>
ush ed</w>
För der
aktu ellen</w>
anc ing</w>
L am
is er</w>
exp res
me d
S ing
ver fahren</w>
th inking</w>
be kommt</w>
Ab geord
batt le</w>
champi on</w>
8 00</w>
ci ans</w>
gest al
k oh
V W</w>
K el
we ather</w>
fam ous</w>
an ces</w>
educ ation</w>
Ur teil</w>
offic er</w>
ob vi
ar gum
C l
Dre i</w>
W ort</w>
organ iz
u ter</w>
R ent
wei st</w>
z on</w>
war ten</w>
Ge gen</w>
si t</w>
perf ect</w>
Mos k
sh es</w>
f ying</w>
ge zogen</w>
T em
S he
Ma x</w>
R ol
immedi ately</w>
sci enti
Sch mid
Te ams</w>
w ander
bre chen</w>
mas sive</w>
w all</w>
her aus
char ged</w>
ges ell
gen der</w>
g nis</w>
arre sted</w>
an i</w>
mar riage</w>
Um welt
ong side</w>
Gl ück</w>
D res
Hau shal
200 2</w>
I T
Auf gabe</w>
z ing</w>
gre en</w>
demo kra
eff ort</w>
vor bei</w>
Her aus
t ouri
C as
er a</w>
Ko alition</w>
ten de</w>
P unkt</w>
län e</w>
ent y</w>
re member</w>
Ge werk
J on
Maß nahmen</w>
h l</w>
Olymp ic</w>
la d
Mi d
rech t
na he</w>
gemein s
Chanc en</w>
kenn t
H ü
We ch
t ough</w>
C am
T ory</w>
ul ly</w>
b ru
. at</w>
3 3
B lack</w>
res er
t al</w>
Stu di
Pati enten</w>
S t</w>
stän de</w>
or in</w>
cent ury</w>
fini shed</w>
m ein</w>
dem and</w>
cle arly</w>
re ds</w>
Ver gan
Geschäfts führer</w>
den noch</w>
im e</w>
am mer</w>
mo b
p il
geb ung</w>
spo ke</w>
Aut ob
to m</w>
tar get</w>
agre ement</w>
Tab ellen
si g</w>
squ ad</w>
Vi de
sig keit</w>
li t</w>
f tigen</w>
fra stru
th a</w>
is on</w>
p age</w>
Ak tu
sti ge</w>
ini ert</w>
Kar ri
Seba stian</w>
&apos; It</w>
syst ems</w>
ö ster
st un
ac i
Ver fahren</w>
Vic tori
ge he</w>
Re de</w>
D DR</w>
C ru
ä r</w>
f it
6 00</w>
Hol z
s om
kl ein
tr on
at ory</w>
Tre ffen</w>
Lu x
be ste</w>
consi dered</w>
bro ther</w>
200 1</w>
Des p
con clu
kno ws</w>
Un fall</w>
ag ers</w>
Öff ent
mis sing</w>
auf grund</w>
wi lli
M and
figh ting</w>
t tem
Rich ter</w>
v als</w>
ä te</w>
kl assi
Präsi denten</w>
Sal z
Priv at
en g</w>
internation alen</w>
ma il</w>
concern s</w>
R et
steh enden</w>
mis sion
eff orts</w>
ist s</w>
dom in
k y</w>
er fü
An der
simp le</w>
t ch</w>
Gesund heits
ehemali gen</w>
sa ve</w>
f ert</w>
p on
E S
Jahr zeh
be yond</w>
b ay
B aden</w>
fem ale</w>
der te</w>
M P</w>
sch lu
repres ent
Ar gent
entschei den</w>
Regier ung
l s
Ma il
Universi tät</w>
vi r
ar i</w>
fu n</w>
d ingt</w>
B S</w>
war ned</w>
Off ice</w>
sor gung</w>
p sych
Man ager</w>
le diglich</w>
Schul en</w>
o vic</w>
mon d</w>
ak es</w>
orig inal</w>
mehr eren</w>
stim mt</w>
z ul
ses sion</w>
Scot t</w>
ar gu
Frie d
gan zen</w>
nu clear</w>
mei st</w>
fe et</w>
victi ms</w>
Ale x</w>
K enn
Kranken haus</w>
c us</w>
fre e
Flori da</w>
gen au
le tter</w>
el ess</w>
A li
pla ces</w>
zei chen</w>
stag abend</w>
r unde</w>
I T</w>
Ih nen</w>
ac tions</w>
b oss</w>
ri s</w>
Mo der
rech ts
ver letz
Nach richten
as p
w ritten</w>
b id</w>
c ars</w>
ff enen</w>
bour ne</w>
Haupt stadt</w>
en or
Com pu
g ül
re view</w>
f än
A ff
dou bt</w>
invest ors</w>
kur z
si des</w>
em y</w>
Ste ve</w>
ro man
we ap
di st
T SV</w>
erh eb
War um</w>
expla ined</w>
Tex as</w>
Spa ß</w>
Sk y</w>
mos ph
T om
O sc
i k</w>
ation al</w>
N ie
ten den</w>
reach ed</w>
star ken</w>
Di rec
entfer nt</w>
l ers</w>
entschei den
Bet ei
incre ased</w>
p t</w>
S ur
Strei t</w>
c ated</w>
we ar</w>
D rei
tri fft</w>
Sp ie
E ing
h ung</w>
G ün
ef s</w>
Bla ck
beton t</w>
Desp ite</w>
F ron
f tige</w>
hin gegen</w>
dru gs</w>
ra d
re form</w>
8 5</w>
see ing</w>
end um</w>
r on</w>
nat ure</w>
B ill</w>
ver ti
Sch ö
star tet</w>
pa in
S ub
Tech n
all ed</w>
0 2</w>
Ge walt</w>
zahl reiche</w>
Parl ament</w>
L ü
To day</w>
agen cy</w>
dri ving</w>
gew ann</w>
ach ing</w>
Ph il
al ter</w>
stell ungen</w>
tradi tion
W un
g ei
P S</w>
tourn ament</w>
F le
Famili en</w>
al ongside</w>
sie g</w>
ha ven</w>
u d</w>
s m</w>
lie fer
bo ys</w>
DF B</w>
ex tra
partic ular</w>
C le
W äh
Ira q</w>
Inv esti
ob wohl</w>
rech te</w>
re spec
A C</w>
ge spielt</w>
sho wing</w>
K ate</w>
so wohl</w>
Ham ster</w>
pro gramm</w>
comple tely</w>
ill ed</w>
s end</w>
ter te</w>
ab or
ö ße</w>
zi sten</w>
Re gen
Griechen land</w>
t elling</w>
appear ance</w>
ma xim
v ille</w>
fin anz
de ep</w>
Coun ty</w>
bis schen</w>
m ü
ex ac
L at
gehö ri
thi as</w>
Lie be</w>
r i</w>
sitz t</w>
Off en
Hanno ver</w>
Ei gen
Andre w</w>
schein lich</w>
new sp
H ere</w>
ni emand</w>
wa it</w>
Brü s
y ment</w>
entwick elt</w>
cau ght</w>
p al
Rett ungs
G ames</w>
cont act</w>
sitz en</w>
throu ghout</w>
est abli
Im age</w>
g ingen</w>
Ak tion</w>
ti al</w>
suff ered</w>
T en
er ster</w>
Dem o
te sten</w>
ga in</w>
H as
C O
Leist ung</w>
Sol daten</w>
se ctor</w>
st ab
kl asse</w>
pass ed</w>
produc t</w>
spe ak</w>
ing ing</w>
suggest ed</w>
ag entur</w>
ut ter
li eb
ges ellschaft</w>
Be zieh
N ik
op position</w>
gr and
äum e</w>
H alle</w>
ym n
be obach
Pro gram
Veranstal tung</w>
Feh ler</w>
vol le</w>
incre di
no on</w>
M ost</w>
beau ty</w>
e ds</w>
Ry an</w>
re gar
pre ci
L ord</w>
he ar</w>
thre at
charac ter</w>
b ahn
schö n</w>
con dition</w>
parti cip
pre gn
ag o
wh om</w>
M ul
deter min
avo id</w>
stre et</w>
c m</w>
f iel</w>
f res
1 000</w>
Rei he</w>
W ag
zentr um</w>
te en
tr auen</w>
x Hamster</w>
H ome</w>
ä st
vol ution</w>
T ony</w>
thre at</w>
st isch</w>
tä r</w>
H im
A si
tro ffen</w>
anc ed</w>
vers ammlung</w>
S ince</w>
inclu des</w>
provi ded</w>
Lu ft</w>
ge zeigt</w>
A th
k ali
in spi
gel ten</w>
sh ort
us ually</w>
verb in
me ant</w>
Pr in
wi d
bel ow</w>
mob ile</w>
commun ic
f rau
O der</w>
at ri
fel low</w>
di a</w>
fol low</w>
Spani en</w>
beau tiful</w>
Z un
erfolg reich</w>
Tr otz</w>
B und</w>
kon kre
a p</w>
some times</w>
län ger</w>
Stim men</w>
tür k
Tran s
ver anstal
fe ar</w>
D un
ehemali ge</w>
S lo
C ur
wen igen</w>
p reis</w>
wer ke</w>
Kir chen
ach es</w>
sol chen</w>
Kun st</w>
Su per</w>
4 5
0 3</w>
einzi ge</w>
ack ed</w>
r uns</w>
chair man</w>
ussi a</w>
Nach dem</w>
ber ech
wich tige</w>
consi der</w>
Ermitt lungen</w>
L ang
fac ili
sti gen</w>
be deutet</w>
sch auen</w>
ste he</w>
op tion</w>
Demok ra
T emp
z immer</w>
geru fen</w>
Ha mil
f ts
laun ched</w>
en cy</w>
man aged</w>
Er st
M ü
h as
T op
schl ands</w>
leg is
ler nen</w>
professi onal</w>
Her bst</w>
mitt elt</w>
E M</w>
Europ äischen</w>
stra tion</w>
Al though</w>
r ose</w>
ter ri
grap h</w>
confi dence</w>
mitt eln</w>
mein t</w>
fun ds</w>
crow d</w>
ab use</w>
D on</w>
desig ned</w>
bor der</w>
ak s</w>
unser en</w>
k al</w>
di on</w>
C i
St rat
pur ch
benef its</w>
sho wn</w>
flo or</w>
Kli ma
D inge</w>
fas st</w>
man u
Sen ate</w>
or ie</w>
Mi ke</w>
kün digte</w>
re ck
D rit
F eri
jo in</w>
gen eh
Au stri
Se kunden</w>
B ö
Sch ei
au ßerdem</w>
er ie</w>
Sch ön
Bar ack</w>
st ly</w>
am i</w>
z ung</w>
ge g
Wach st
t ö
Nach wu
Fol gen</w>
tur al</w>
Heraus forder
w and</w>
con ta
b ase</w>
get ö
dec ades</w>
Partei en</w>
S we
Ri o</w>
ein er
. m.</w>
Ein satz
Ver hält
los ing</w>
St and</w>
mat erial</w>
bri dge</w>
J ac
Mer ce
le gte</w>
ff s</w>
ans wer</w>
belie ves</w>
her aus</w>
E ver
oo d
ci ti
stu di
Ergeb nisse</w>
Z war</w>
ig ar
Af D</w>
ro s</w>
elec tri
d ol
wor st</w>
ges sen</w>
k w</w>
g as
P ause</w>
r ying</w>
organ isation</w>
tra f</w>
s au
gel y</w>
P lan</w>
com men
erst ör
Dat en
dam age</w>
resp ect</w>
K y
pri mar
i scher</w>
wa iting</w>
par ties</w>
R und
prot ect</w>
k ick
W ander
dro p</w>
L A
bel e
ö tz
fri end
Unter nehmen
gesch ichte</w>
B au</w>
tra in</w>
Ban ken</w>
high est</w>
Auf tritt</w>
s ale</w>
B it
G as
ver dien
ef ully</w>
le ts</w>
cri me</w>
wor fen</w>
desig n</w>
c ans</w>
J es
Ab schluss</w>
j ected</w>
Schmid t</w>
9 6</w>
R an
E t
Hamil ton</w>
bekann te</w>
net work</w>
wor k
sch au
m es
Br un
p un
schri ft</w>
suppor ters</w>
kei ts
gel assen</w>
Su che</w>
Fran z
m än
ber n</w>
sol le</w>
Sch ütz
Flugha fen</w>
dis appoin
wat ching</w>
fas hion</w>
dar in</w>
ad dress</w>
hal tung</w>
f a</w>
poli tics</w>
er läu
call ing</w>
Bor ussia</w>
ru s</w>
T un
aw are</w>
I V</w>
ot h</w>
hi g</w>
I st</w>
milli ons</w>
sch em</w>
J a</w>
si tes</w>
m outh</w>
Men sch</w>
ha f
m einer</w>
presi dential</w>
ste ckt</w>
n ar
si erung</w>
Merce des</w>
wi se</w>
frei en</w>
car ried</w>
p ap
h ou
Konz ern</w>
lu st</w>
iel d</w>
4 0
mittei lte</w>
stei ger</w>
Vergan genheit</w>
f oot</w>
necess ary</w>
un ding</w>
deli ver
t um
mo un
hol ding</w>
Organ is
inter essi
S ecu
i x</w>
sur ro
versi ty</w>
off iz
p re</w>
li eben</w>
gest ie
B os
ange sichts</w>
Mur ray</w>
Schwar z
put ting</w>
Y ou
E L</w>
ver wen
Char les</w>
Fil m
S ci
Dopp el
Deut schlands</w>
Sp an
R oll
am bi
k aufen</w>
t ab
p aper</w>
mi sche</w>
Mün chner</w>
Bra sili
fa ir
si ster</w>
sch li
cl osed</w>
spre ad</w>
x ing</w>
A gent
individu al</w>
S ab
disk u
Her r</w>
schl ossen
wi der
Betri ebs
z e
Wei ter
Dur ing</w>
Sp itze</w>
beg eist
si onen</w>
B M
hal te</w>
bo y
ig keiten</w>
Bus h</w>
St ru
sozi alen</w>
spr ung</w>
Lei ter</w>
app lic
Wei tere</w>
h ielt</w>
20 .</w>
in stru
He alth</w>
defe at</w>
lea der
7 2</w>
Land kreis</w>
verk auft</w>
s ons</w>
pf el</w>
k il
N ich
K lu
w ind</w>
b on
N ah
T ä
T im</w>
lo an</w>
gr enz
Sch ool</w>
attemp t</w>
Asy l
ren e
R at
zi er
Car ol
p ick</w>
Mom ent</w>
ten ham</w>
err t</w>
res ol
Z eh
s elling</w>
wi s</w>
wech sel</w>
le ss
ag gres
G ott
enti re</w>
Vertre ter</w>
f ly</w>
6 4</w>
twi ce</w>
St ati
sch ick
Hinter grund</w>
lan gu
Bei de</w>
sub ject</w>
dru ck
ep s</w>
ligen ce</w>
sc en
mur der</w>
dise ase</w>
b ü
Rh ein
s un
K ie
mi se</w>
dri ver</w>
rech nen</w>
Wi es
l or</w>
p rec
Jo e</w>
ver ab
gi schen</w>
re ment</w>
grün det</w>
sti k</w>
F lä
Ge setz</w>
Them en</w>
ar d
T H
us ual</w>
Ver s
unterstütz t</w>
sp ür
es a</w>
J an</w>
Ant wort</w>
se c
ho ben</w>
M oh
Con gress</w>
scre en</w>
C lau
Ti ere</w>
insur ance</w>
ch a
Dien st
berei tet</w>
com fort
Schwei z</w>
Patri ck</w>
di sa
g by</w>
ent ri
F en
m bo
ub il
N ummer</w>
benef it</w>
impro ve</w>
um s
Mel bourne</w>
L ok
z ählt</w>
Poli zisten</w>
b ad
Jo ach
G ir
An ti
ti ven</w>
Te am
com mer
fl ü
c enter</w>
wri ting</w>
gre at
Bet ro
Mit glied</w>
gar ten</w>
N az
Mc C
H igh</w>
Di re
Deb atte</w>
S um
T ö
sc ore</w>
Part ner</w>
di ag
Prof essor</w>
Associ ation</w>
c uts</w>
j et
N R
Gol d
Be deut
au ff
lei sten</w>
tei len</w>
R ü
las h
differ ence</w>
Ge win
pa ying</w>
tra g
ge halten</w>
exac tly</w>
Au gen
so ciety</w>
d opp
r ent</w>
Aus stellung</w>
spoli tik</w>
k tion
er o
Wal ter</w>
berich ten</w>
dro ht</w>
n al</w>
V il
enn ung</w>
te u
W ur
gel t</w>
sti schen</w>
6 6</w>
F otos</w>
Be st</w>
g rie
th ri
Dru ck
B rau
g t
h n
Joach im</w>
Vor stand
ar tic
f red</w>
Be wegung</w>
la den</w>
Stra ßen</w>
Verhand lungen</w>
Möglich keiten</w>
pri me</w>
fre und
g ün
sch wei
Pres se</w>
be tra
Beru fs
D e</w>
st ore</w>
erinn ert</w>
tr otzdem</w>
fac es</w>
coun t</w>
be grü
fun ding</w>
ti erten</w>
T at</w>
M ic
fic ation</w>
A ri
Go d</w>
Sen i
A b</w>
p oll
a id</w>
typ e</w>
früh eren</w>
Leip zig</w>
F estival</w>
Sau di</w>
mb H</w>
gi c</w>
sh irt</w>
vor zu
plan e</w>
R und</w>
A M
wär en</w>
20 20</w>
e ful</w>
pe ace</w>
basi s</w>
ro oms</w>
dan ger
alist s</w>
sol di
gu ar
et tel</w>
hol t</w>
den falls</w>
str ate
We gen</w>
high ly</w>
S ani
hei mer</w>
Re d
Rei se</w>
W ill</w>
fac ed</w>
and ed</w>
inju red</w>
dro pped</w>
ac tive</w>
sitz er</w>
after noon</w>
di vi
verhin dern</w>
ra ise</w>
ein z
ut ely</w>
T est
D au
ep tion</w>
Gemeinder at</w>
F ig
pla ys</w>
con vi
Schl uss</w>
ho t</w>
Vorsitz ender</w>
Organ isation</w>
as king</w>
lo ved</w>
k ungen</w>
Th eir</w>
ver trag</w>
alle g
rep ubli
spr ün
Wer ner</w>
nor th</w>
de ep
. .</w>
ot te</w>
pro fi
H ir
ac ken</w>
stu dent</w>
S am</w>
freu en</w>
ver pflich
komple tt</w>
F ak
gener ation</w>
hund reds</w>
sch u
Im mobili
m i</w>
sta ke</w>
C olle
sk in</w>
b ought</w>
n ings</w>
CN N</w>
ma g</w>
ra in</w>
K rei
C li
zi erte</w>
ac ted</w>
ad d</w>
hab t</w>
c ting</w>
In te
Fern seh
for men</w>
ch eck</w>
15 .</w>
R ang</w>
au sen</w>
bestä tigt</w>
än dern</w>
Bil dungs
st ets</w>
is es</w>
ma kers</w>
sogenann ten</w>
gi ves</w>
Wür ttem
rei chte</w>
s ungen</w>
ot a</w>
geb ro
s se</w>
d den</w>
he aring</w>
di plom
sho oting</w>
mort g
At lan
Eig ent
fort un
stra h
voll er</w>
Re ak
Z ü
th in</w>
l or
spe ed</w>
se kre
dar k</w>
gu il
i gi
be coming</w>
ow ner</w>
b aller</w>
respon sible</w>
H ist
L eu
Vor berei
n i</w>
li ter
ic a</w>
Hei mat
Lin ie</w>
Per son</w>
D ou
ad mi
ac ci
enjo y</w>
ath oli
am az
tra v
wor se</w>
fra u</w>
de ck
stär ker</w>
Rek ord
Fran z</w>
S ant
Hi gh
fi f
recei ve</w>
N ür
2 50</w>
Sitz ung</w>
in ho</w>
Ehr en
sor gte</w>
tra gs
c ros
je kt</w>
K ro
Ch il
c ester</w>
rech ts</w>
ologi cal</w>
sch ü
Mei ster</w>
Rom an</w>
concern ed</w>
per fe
la tions</w>
G mbH</w>
D F</w>
pre par
b rit
do ws</w>
Z us
Nach fol
ben ö
N ick</w>
sti sche</w>
Arbei ten</w>
j emand</w>
m einen</w>
Mili tär
Geb urt
alle ged</w>
inv esti
ni ce</w>
erg än
Sonn en
ck ets</w>
ho fft</w>
ad vice</w>
ein st</w>
le i</w>
be th</w>
jüng sten</w>
star ke</w>
v ill
MP s</w>
h ood</w>
wei t
Schwei zer</w>
dec ade</w>
d wi
def ence</w>
Kur z</w>
st rä
meas ures</w>
ma chten</w>
E he
wir kt</w>
sc ri
N u
N ar
J ord
nation alen</w>
enn is</w>
Le wis</w>
Democ rats</w>
L E
Brüs sel</w>
erk ennen</w>
G ruppen</w>
Ham burger</w>
as es</w>
amp ag
P reise</w>
k el
Li ve</w>
beg ann</w>
l ass</w>
6 3</w>
gri ffen</w>
e e
C .</w>
k et
Hoff nung</w>
sta at</w>
contri bu
keep ing</w>
y es</w>
econo mi
l eng
Den noch</w>
7 1</w>
i ere</w>
Mein ung</w>
trans fer</w>
pl ötz
mar t</w>
sp rü
passi ert</w>
dri ch</w>
con f
ran ts</w>
Aus land</w>
ri schen</w>
am in</w>
c in
Ste ph
Kran k
L e</w>
ep is
ex er
6 2</w>
Le e</w>
Karri ere</w>
ran g</w>
h it
Welt meister</w>
Op position</w>
Sp or
re ali
B rei
Li cht</w>
Geschä ft</w>
Nat ürlich</w>
a c</w>
medi z
g ä
Dan ach</w>
Öffent lichkeit</w>
Ama zon</w>
ast ern</w>
plan ning</w>
unter nehmen</w>
Mosk au</w>
Demo cratic</w>
An hän
mat es</w>
verantwor tlich</w>
ver suchen</w>
Kul tur</w>
beg inning</w>
ve au</w>
A .</w>
Ju gend</w>
C E
requi red</w>
a im
hr er</w>
her vor
B om
v il
s an
adv ant
resear chers</w>
6 7</w>
gen utzt</w>
Or d
6 1</w>
ver waltung</w>
ast rop
leader ship</w>
l t
gerich tet</w>
M ob
brit anni
grei fen</w>
ak ed</w>
Bet reu
m mer</w>
ins besondere</w>
Verantwor tung</w>
K no
candid ate</w>
k auf
X X
gef ra
bra in</w>
er enden</w>
esti c</w>
Wol fs
i erten</w>
Künst ler</w>
kämp fen</w>
19 .</w>
Gemein de
gel ei
lear n</w>
lo ad</w>
Es sen</w>
Neu e</w>
P ress</w>
st ung</w>
setz ten</w>
um en</w>
m üh
Bedeut ung</w>
gel n</w>
Gr enzen</w>
Ar ena</w>
10 0
sch ar
fre ut</w>
minist erin</w>
temp or
Gre en</w>
ru le</w>
Mat thias</w>
j ähriger</w>
C y
F la
tag s</w>
Fo ot
6 9</w>
m ali
Schließ lich</w>
erwar ten</w>
Oli ver</w>
Regi onal
R em
indepen dent</w>
O ther</w>
f ährt</w>
mit glie
an den</w>
mei er</w>
Kre di
exper ts</w>
so und</w>
2 9
Qu ad
stat us</w>
dem nach</w>
eri sche</w>
power ful</w>
mar ks</w>
mat ches</w>
ou d</w>
bur y</w>
O l
C u
li ge</w>
Aut om
Freu de</w>
D ah
groß es</w>
sel s</w>
busin esses</w>
I L
manu fac
cap tain</w>
Re fer
c up</w>
Hau sh
sätz e</w>
B I</w>
c ross</w>
Fre unde</w>
Ma cht</w>
pop ulation</w>
bro ke</w>
man i
Mex ico</w>
fin ish</w>
P ic
Jugend liche</w>
rei ber</w>
ver bess
K lei
m äch
min im
R eb
rup tion</w>
lo ck</w>
Heim at</w>
gem el
g un
O rig
fan den</w>
wor e</w>
r h
G lob
Ver wal
T ick
Pak istan</w>
Det ails</w>
Sch utz</w>
n on
Se e</w>
Bot h</w>
Düssel dorf</w>
Wil d
le dge</w>
x is</w>
An na</w>
le g</w>
erz äh
commit tee</w>
we dding</w>
ander es</w>
Pal ace</w>
sta aten</w>
ter ed</w>
er s
it z</w>
T on
Qu ali
laun ch</w>
Bet rieb</w>
201 9</w>
Produ kte</w>
fri ed</w>
A dam</w>
up on</w>
Vor stand</w>
t op
R al
Bundestag s
J ack</w>
cra ft</w>
K auf
b acher</w>
da durch</w>
sa v
mov ement</w>
Tit el
wahr scheinlich</w>
6 8</w>
bi o
Jugend lichen</w>
getö tet</w>
sch au</w>
Aus bildung</w>
ver kehr
G au
le ment</w>
ari an</w>
frü here</w>
s outh</w>
gelö st</w>
er neu
rich tungen</w>
P A</w>
Port ug
op ini
r ut
alo g</w>
pa in</w>
ma sch
he av
gre ater</w>
Stim mung</w>
co unter</w>
Pro v
Be k
limi ted</w>
c amera</w>
erz iel
N ein</w>
Groß britanni
Isra el
an lage</w>
Tay lor</w>
S E
ne tz
ung spro
b b
H ill
13 .</w>
Po sition</w>
tra ff
Mit tel</w>
ad o</w>
Me tern</w>
reas ons</w>
P reis
ph ones</w>
Mo ur
Gast geber</w>
be ck</w>
pra kti
A sh
L y
it able</w>
se at</w>
s mi
ar ms</w>
nied ri
hop es</w>
überra sch
Kon takt</w>
Victori a</w>
practi ce</w>
ange kündigt</w>
itali en
d rück
Lehr er</w>
Par liament</w>
vo ice</w>
Ch an
atur en</w>
au ßen</w>
con sum
ex clu
Ministerprä sident</w>
est ate</w>
Her z
R onal
J a
B is
S us
N ad
l i</w>
V e
F ur
Ra dio</w>
ger y</w>
pre pared</w>
h ur
r ot
r y
Sou th
stand ards</w>
appro pri
F ast</w>
vi erten</w>
Sch nei
regu lar</w>
pic tures</w>
continu es</w>
ph otos</w>
d as
organ is
B all
as ing</w>
W ie
Republi cans</w>
Zentr um</w>
Sti ftung</w>
häu fig</w>
st y
Jo b</w>
ti tu
stär k
v ollen</w>
V B</w>
West ern</w>
pro mp
k ürz
w l</w>
ko stet</w>
k tur
eng ag
Gesprä che</w>
re den</w>
er ei</w>
fri stig</w>
K ein</w>
son g</w>
O sten</w>
Osc ar</w>
won der
im ages</w>
k ör
N HS</w>
Sy st
k at
autom ati
Sk i
Ber at
den ied</w>
Vor aus
he avy</w>
nö tig</w>
b n</w>
un ver
fa vor
ymn asi
bun des
An dy</w>
f äh
kri se</w>
mö gliche</w>
mut lich</w>
stri ke</w>
car ry</w>
H under
e genheit</w>
vot ed</w>
dig ungs
feh lt</w>
bir th</w>
H ann
h ot
st ati
b o</w>
sch lagen</w>
stopp ed</w>
lo y
n utz
tr aum</w>
c amp</w>
7 7</w>
gh ted</w>
surpri se</w>
fres h</w>
lin ked</w>
verschie dene</w>
ow ners</w>
audi ence</w>
Th ose</w>
beg onnen</w>
Verein s
ad dition</w>
danger ous</w>
tradi tional</w>
Zentr al
Zeit punkt</w>
sh oul
E very
tu re
Ange klag
unterstütz en</w>
mis s</w>
ow ned</w>
C o</w>
st eu
Cor by
7 00</w>
Gr enz
E ff
k ehr</w>
ch ern</w>
Net z</w>
Kop f
Kur z
ak tiv</w>
Gr enze</w>
ken nen</w>
T ari
kra ft</w>
an ese</w>
Tot tenham</w>
Al les</w>
Qu alität</w>
Instit ute</w>
ac ker</w>
refer endum</w>
gemeins amen</w>
Jos ef</w>
Frie den
del s</w>
Por n</w>
Konz ept</w>
stan ces</w>
read ing</w>
it t</w>
Zusammen hang</w>
B .</w>
li ghts</w>
m l</w>
Wet ter</w>
te en</w>
R um
f ie</w>
war m</w>
m är
for ec
l ag
k anz
ges amten</w>
Tem per
cor por
An griff</w>
Erfahr ung</w>
direc t</w>
eri ge</w>
m ers</w>
f ein
su per</w>
muni k
cli mate</w>
stei gt</w>
co unter
oper ations</w>
er lau
Person al
for dern</w>
Beson ders</w>
bal ance</w>
Bre men</w>
Men ge</w>
dis covered</w>
geb ie
plan ned</w>
qu ir
ordin ary</w>
stand ard</w>
AR D</w>
rest aurant</w>
neh in</w>
si tting</w>
Li by
n ote</w>
sen s
zeich nete</w>
F ab
er innen</w>
R us
ti t
yo ur
Lou is</w>
ab in
la di
möglich st</w>
und ation</w>
An trag</w>
Sch aden</w>
teil weise</w>
Gre at</w>
in en
li sten</w>
Z w
gemein schaft</w>
n ommen</w>
re al
auf s</w>
ur ing</w>
spe zi
1 1.</w>
is se
sich t
em an</w>
fl uss</w>
pe t</w>
Re gel</w>
Ro ber
e te</w>
Tre ffer</w>
um stri
Bezir ks
m assi
Com mit
Agent ur</w>
feat ures</w>
L en
guil ty</w>
B li
fac ing</w>
Präsi dent
em en</w>
newsp aper</w>
An th
sel ten</w>
ge troffen</w>
ell or</w>
ei en</w>
p ose</w>
tre ated</w>
P ass
Sar ah</w>
te x
S eri
Hein z</w>
wer te</w>
L iste</w>
Rom ney</w>
gran ts</w>
Ye ar</w>
En gagement</w>
C at
vari ous</w>
ber icht</w>
ge schlossen</w>
redu ce</w>
Frie drich</w>
g ate</w>
ges amte</w>
k olle
pen alty</w>
sp lit</w>
öff entlich</w>
h eb
gel ang</w>
br un
14 .</w>
bish erigen</w>
Vf B</w>
ma ker</w>
An zei
ati v</w>
off ering</w>
Se eh
Amer ik
Itali an</w>
pp en
G lei
Kontro lle</w>
geschaff t</w>
ba g</w>
For sch
un a</w>
Bunde stag</w>
D o</w>
ou red</w>
h am
V illa</w>
Je der</w>
b ein
bro ken</w>
Win d
Gabri el</w>
imp os
event ually</w>
B at
disp lay</w>
wir ken</w>
ge setz</w>
tou ch</w>
ge be
v ar
Wh o</w>
ro t</w>
Can ada</w>
Lan de
D ub
Z äh
Ch i
Isla mi
il fe</w>
fre qu
Mari o</w>
wi ll
Afri can</w>
duc tion</w>
&apos; We</w>
Sch il
Ch ic
St ellen</w>
gem ä
bewus st</w>
on ey</w>
no ti
sig ns</w>
Arbeit sp
auf genommen</w>
2 3
inju ries</w>
H all</w>
T aus
M ir
K urs</w>
ush ing</w>
es cap
gestie gen</w>
ah nen</w>
sp ie
k it
li ved</w>
Oh ne</w>
1 20</w>
fan ta
k einer</w>
C op
bu ch</w>
dou b
West en</w>
Tra ining</w>
f r
gi g</w>
si gen</w>
tig es</w>
un k</w>
R O
ehic le</w>
employe es</w>
comfort able</w>
air port</w>
r ats
or ney</w>
Al ters
bl on
prof it</w>
addi tional</w>
Techni k</w>
sch were</w>
10 .</w>
opp on
Zwi schen
schul en</w>
stri ker</w>
L ar
Im mer</w>
W ich
cast le</w>
Rei se
e fore</w>
pr osp
br ut
Er do
B ec
18 .</w>
betro ffen</w>
I .</w>
Un der</w>
Un fall
Res er
Hot els</w>
-- --
oto gra
pro gress</w>
help ing</w>
Corby n</w>
it h</w>
gefra gt</w>
beg in</w>
ch ine
tru st</w>
h art</w>
w asser</w>
v ul
I P</w>
v ei
St ri
bot tom</w>
sch il
Ronal do</w>
ge sprochen</w>
pit ch</w>
Portug al</w>
rich tet</w>
ti e
Ar chit
aus schuss</w>
quali fi
Hin weise</w>
Zei chen</w>
be für
Medi z
Vf L</w>
Com mun
Al li
do ctors</w>
f ted</w>
russi schen</w>
Disk ussion</w>
cre di
Mour inho</w>
au ern</w>
heal thy</w>
ouri te</w>
dres sed</w>
n ames</w>
ma cher</w>
boo ks</w>
O t
con vers
je denfalls</w>
verein s</w>
B ach
Lu dwi
k ick</w>
Sel bst</w>
flä che</w>
Rath aus</w>
P lus</w>
al a</w>
Ein ige</w>
emplo yment</w>
aktu alisiert</w>
appe al</w>
resi dents</w>
Commit tee</w>
ref used</w>
Ze al
rei b
bir th
er fahren</w>
Vor jahr</w>
dor fer</w>
kon ferenz</w>
sen si
v an
accoun ts</w>
H ill</w>
Kanz lerin</w>
H osp
alleg ations</w>
d ged</w>
Stre cke</w>
un ten</w>
ci an</w>
An teil</w>
30 .</w>
Nat ur</w>
Nor thern</w>
Ste p
pro ud</w>
i Ph
Wer k</w>
ari es</w>
vo c
civi l</w>
W all</w>
ab gel
gra du
Vi elleicht</w>
R ou
in nov
ist ischen</w>
St an
br on
plötz lich</w>
Z ahl
Sch o
u se
eri g</w>
langu age</w>
I E
exp ensive</w>
dom estic</w>
lei tung</w>
d ates</w>
17 .</w>
S mart
Ge sicht</w>
ver stär
de ad
genann t</w>
k ni
um e</w>
M un
Nür n
hand eln</w>
itä n</w>
er ende</w>
develop ed</w>
Lei cester</w>
bur gh</w>
I ri
absol utely</w>
issu ed</w>
Isla mic</w>
franzö sischen</w>
schle cht</w>
Aut or</w>
n ur
mann schaft</w>
tä glich</w>
com par
F euer</w>
cer em
Be amten</w>
Ge fühl</w>
we alth</w>
f und
ci ties</w>
sch ön
ed ly</w>
la m</w>
wür fe</w>
s i</w>
Fo x</w>
re in
Vier tel
Poli tik
te sts</w>
Mar co</w>
Bl ut
kenn t</w>
FI FA</w>
Konz er
er ungen</w>
temper at
G rupp
kill ing</w>
wei te</w>
Is land</w>
ad op
respon sibility</w>
16 .</w>
s inn
J ubil
cor rec
po p</w>
sem ble</w>
G az
dra ma</w>
d d</w>
may be</w>
hä user</w>
Fre und</w>
coun cil</w>
la ws</w>
Char l
strateg y</w>
gleich zeitig</w>
il legal</w>
em bar
s th
ig n
amerik anischen</w>
g lo
ten nis</w>
regel mäßig</w>
schl oss</w>
t ory</w>
Lu k
Y es</w>
Ma in</w>
maß nahmen</w>
j ap
H it
6 0
ü hr
Y our</w>
Justi ce</w>
ed y</w>
Fir men</w>
ap art
tru th</w>
Schri ft
direc tly</w>
it ely</w>
M ik
t y
sex u
see king</w>
Ko ali
schütz en</w>
fei ern</w>
re stri
T urn
be an
St är
Ver waltung</w>
ern t</w>
am keit</w>
gef ei
Beh and
st eps</w>
E gyp
Fäl len</w>
be auf
f j
con fli
k lu
Die ter</w>
poli cies</w>
sätz lich</w>
inter net</w>
O r</w>
regi onal</w>
Champi onship</w>
a sion</w>
R oh
M es
Chic ago</w>
n am
über nehmen</w>
be findet</w>
su sta
produc ed</w>
Bil dung</w>
Turni er</w>
müs ste</w>
D y
tim ate</w>
H ou
deut scher</w>
your self</w>
war nt</w>
me e</w>
Al p
k u
The ater</w>
2 1.</w>
7 8</w>
p ush</w>
Quad rat
Z er
angeb oten</w>
Span ish</w>
Fi scher</w>
ne ar
environ ment</w>
J ag
bri lli
mu seum</w>
lie ber</w>
bor ne</w>
dest ro
überzeu gt</w>
Ma j
Ro ck</w>
tal ent</w>
physi cal</w>
fav ourite</w>
eff ective</w>
oh nehin</w>
B oo
beg innen</w>
Feuer wehr
Kandid aten</w>
punk te</w>
Ar n
hol e</w>
guar an
To des
en zi
rich ter</w>
pre vent</w>
opti mi
spe aking</w>
Württem berg</w>
ver lan
In sel</w>
victi m</w>
pul led</w>
emer gency</w>
hal le</w>
has n</w>
over all</w>
ac ting</w>
ra dio</w>
E b
sh e
fra gt</w>
con v
v ehicle</w>
re commen
ni k</w>
W im
la h</w>
Über ra
than ks</w>
de als</w>
Wa gen</w>
ac tivity</w>
a ward</w>
ber üh
lig ten</w>
E l</w>
199 9</w>
ri sing</w>
da ily</w>
ri er</w>
ro l</w>
prot est
sur gery</w>
hi er
R as
F ür
at ten</w>
w ns</w>
o o</w>
mö gen</w>
Sp ek
ge habt</w>
Mat t</w>
t äu
prü ft</w>
Konz ert</w>
Ro t</w>
m ely</w>
ra c
blo ck</w>
L or
Sta dium</w>
K eine</w>
ro ck</w>
hous ing</w>
pl enty</w>
üh l
B ag
gir l
In stru
3 8
V om</w>
öster reich
fif th</w>
bin ation</w>
app e</w>
L et</w>
happ ens</w>
Nutz er</w>
fl at</w>
gebro chen</w>
Schl uss
erh ielt</w>
increas ingly</w>
ph y</w>
Spra che</w>
d ank</w>
conc ern</w>
cri minal</w>
su spec
char ity</w>
B lu
aff ected</w>
Bra zil</w>
Zeal and</w>
magaz ine</w>
Ge gent
einge setzt</w>
H op
dies mal</w>
spar tei</w>
Mor gen</w>
res our
di sh</w>
cra sh</w>
a g</w>
app en</w>
sprä sident</w>
l ück
D ank</w>
Großbritanni en</w>
Schwar z</w>
is land</w>
repor tedly</w>
Musi ker</w>
se tting</w>
Mis s</w>
Mot to</w>
Wech sel</w>
ck ey</w>
d ritte</w>
S ul
s amm
kom me</w>
bek am</w>
zu gleich</w>
G ymnasi
frei e</w>
Ver än
p fi
z erstör
St ür
ge tr
be ach</w>
as h</w>
K aff
25 .</w>
B ou
in su
dam ali
mer z
Er öff
he ar
bekann ten</w>
ag ues</w>
W ell</w>
Kreu z
d n</w>
secre tary</w>
secre t</w>
All gem
t ut</w>
ep ing</w>
un abhängi
w ins</w>
unser em</w>
G B</w>
fin als</w>
J ungen</w>
f are</w>
pro v
1 ,000</w>
gemel det</w>
W ill
che mi
Wettbewer b</w>
mon it
auf hin</w>
Br and</w>
wei ten</w>
c lin
beschäf tigt</w>
Th ree</w>
b auer</w>
7 4</w>
W ähr
ho l</w>
p ak
Ba y</w>
T au
sozi ale</w>
Li ke</w>
St or
amaz ing</w>
r ated</w>
bel ast
le ger</w>
ä ger</w>
e ding</w>
weap ons</w>
enjo yed</w>
inter ess
f i</w>
lö sen</w>
Pf lan
op tions</w>
E di
Krie gs
M ah
hei t
ic es</w>
geb oren</w>
de te
j ok
ell o</w>
p li
B ron
sch eme</w>
Er kennt
ro ll</w>
com mitted</w>
prü fen</w>
politi cians</w>
einzel nen</w>
Sat z</w>
er schi
W es
at z
de pres
bestä tigte</w>
Al koh
le u
Por n
ent gegen</w>
N ame</w>
f ts</w>
L ag
ot ten</w>
cle an</w>
Secu rity</w>
sen de</w>
acc ept</w>
ati v
form ing</w>
7 3</w>
qu ick</w>
comp uter</w>
g ruppen</w>
advant age</w>
l ler</w>
For d</w>
H ay
st ör
setz ungen</w>
sug gest</w>
ci se</w>
gri ffe</w>
Ju stin</w>
tro ops</w>
de si
D enk
amer as</w>
D ig
Drit tel</w>
schaft ler</w>
ex am
heu tigen</w>
jo ur
K am
Z immer</w>
Har t
ern s</w>
Geor gi
frü hen</w>
yo unger</w>
jähr lich</w>
al co
In stead</w>
F ro
kün st
Sie ger</w>
D u</w>
Olymp i
Frau en
and ing</w>
Feri en
l un
ver län
ho ffen</w>
m end</w>
Spe aking</w>
Verk ehr</w>
el ek
7 6</w>
ac ts</w>
op ing</w>
g ie</w>
zie mlich</w>
Initi ative</w>
ami d</w>
Ver fassungs
wh at
K ämp
ch urch</w>
unbe dingt</w>
m ote</w>
cont ent</w>
F an
st ern</w>
ed ul
Kap itän</w>
Klas sen
Stro m
verb rei
stru ck</w>
frü h</w>
C ast
fe els</w>
st ories</w>
N E
P M</w>
photo graph
ar m
Leist ungen</w>
desp er
ell es</w>
verän dert</w>
gu y</w>
ar ran
geplan ten</w>
Nach frage</w>
pros ecut
emo tional</w>
pos si
12 .</w>
li kes</w>
Nach mittag</w>
sec ure</w>
rech ten</w>
Pol en</w>
O ld</w>
schn ei
Auf sichts
bi en</w>
k us</w>
au rants</w>
ump ed</w>
kontro lli
P ir
Demokra tie</w>
separ ate</w>
Son ne</w>
de g
Bern d</w>
is la
Bec ause</w>
rele v
tic ally</w>
pro ved</w>
k ä
hin zu</w>
li an</w>
deci sions</w>
Energ ie</w>
f ish</w>
pas sen</w>
behör de</w>
O ut
re fu
Lo ve</w>
d n
zahl reichen</w>
insi sted</w>
Frankfur ter</w>
Jer emy</w>
h a</w>
D I
Wi ener</w>
ru f</w>
us en</w>
B ün
St ars</w>
Journ alisten</w>
N eben
intel ligence</w>
de but</w>
Ver sich
beteili gt</w>
y l
p ar</w>
ge fordert</w>
be we
de v
pick ed</w>
führ ten</w>
sp er
stell vertre
sa d
f ter</w>
Her steller</w>
professi on
per man
O S</w>
stän dige</w>
ner ship</w>
au l
aktu ell</w>
de pen
men sch
G ü
spra che</w>
Sto ck
s na
Kar te</w>
For scher</w>
P läne</w>
Er de</w>
p fen</w>
zei gten</w>
b ann
on ing</w>
Wun sch</w>
Sach sen</w>
Re cht
krie g</w>
schätz ung</w>
lu x
W o</w>
bre aking</w>
ich ts
tra iner</w>
C D</w>
al bum</w>
behavi our</w>
C an</w>
De fen
Schau spiel
fäl len</w>
Seeh o
T ha
great est</w>
Kom ment
get an</w>
emerg ed</w>
hum an
Z um
hän gt</w>
din ner</w>
R at</w>
secon ds</w>
b ie</w>
wer fen</w>
g utes</w>
Let z
law yer</w>
Auf gaben</w>
s anc
de partment</w>
z ar
c ore</w>
ou ts</w>
e at</w>
beh aup
b ol
sch edul
Comp any</w>
coll ap
was ser
Anth ony</w>
R enn
er öffnet</w>
gesp errt</w>
j ec
V ari
sc ale</w>
do ctor</w>
Ge wer
In formation</w>
G ran
G anz</w>
Au ff
hol ds</w>
T sch
a war
hei m
entde ckt</w>
ent stehen</w>
Fahrzeu g</w>
gi sche</w>
wri ter</w>
star ts</w>
Ein tra
b on</w>
Sp ann
stre ets</w>
c old</w>
wri te</w>
p lätze</w>
pro ve</w>
sogenann te</w>
G ru
ol en</w>
co w</w>
extre mely</w>
wichtig sten</w>
Z in
ti li
C ou
Köl ner</w>
Qu elle</w>
R ose</w>
fe e</w>
auth or</w>
st y</w>
T isch</w>
ru he</w>
Telef on</w>
immi gration</w>
estim ated</w>
Johann es</w>
Be dingungen</w>
betri eb</w>
cri tical</w>
keep er</w>
Schal ke</w>
fin ding</w>
fi re
scor ing</w>
Mis s
wal king</w>
war ning</w>
Po si
mo tion</w>
ut y</w>
neg ative</w>
mi ert</w>
ung sh
Step hen</w>
e ing</w>
Kör per
blon de</w>
Sprech erin</w>
oper ating</w>
P fer
nor m
be dingungen</w>
repor ters</w>
el e
Er wachsen
Olymp ics</w>
Au gs
w ine</w>
Sp ei
kehr t</w>
lo sigkeit</w>
199 8</w>
Phili pp</w>
lei der</w>
Waff en
stor m</w>
zi erten</w>
Al b
Sz ene</w>
big ger</w>
w ä
ri sche</w>
än dert</w>
Lin ke</w>
den s</w>
stu ff</w>
Konkurren z</w>
Är zte</w>
Ever ton</w>
Com m
mom ent
mat eri
Europ as</w>
Ger ade</w>
con struction</w>
Jack son</w>
an schließend</w>
Leist ungs
Al i</w>
R ak
A del
ge dacht</w>
On ly</w>
Quali fik
Tei le</w>
ol er
Le on
em ail</w>
p ment</w>
F lei
chang ing</w>
men s</w>
prof ile</w>
ti ef</w>
gi ant</w>
unk lar</w>
Grün e</w>
re min
R ang
orig in
Hand els
fle xi
Li fe</w>
An spruch</w>
l am
birth day</w>
sho w
bot en</w>
back ed</w>
N er
st ress</w>
A S</w>
F uture</w>
but ed</w>
Sta dion</w>
schwar z</w>
ak zep
Vi er</w>
Musli m</w>
ag ree</w>
sol ven
Sch utz
z ut
ampag ne</w>
Lei tung</w>
weiter er</w>
ve ter
5 ,000</w>
prot ection</w>
Um gebung</w>
ch tung</w>
Tel e
ann a</w>
J ör
verstän dlich</w>
sem i</w>
ri e</w>
se es</w>
Ther esa</w>
zeu ge</w>
F ein
V P</w>
aus ch</w>
fail ure</w>
rema ined</w>
con ven
Auf trag</w>
minist ers</w>
K os
Wol f</w>
S hi
stra fe</w>
zeich nung</w>
gemein de</w>
west ern</w>
län dern</w>
be schlossen</w>
z a
s ati
entwick eln</w>
ter y</w>
Veranstal tungen</w>
se as
ess ed</w>
suggest s</w>
b ö
Reg isse
K ei
Auto fahrer</w>
Th ür
fi red</w>
8 8</w>
Im ages</w>
propos ed</w>
A pp</w>
wich tigen</w>
vi de
si ge</w>
Je an</w>
ge fü
Europ äische</w>
intro duced</w>
b i</w>
internation ale</w>
disc us
streng th</w>
beg inn</w>
Christop h</w>
steh ende</w>
P C</w>
gel ie
vi ert</w>
w ähr
ger en</w>
sp on
Wh it
sh ots</w>
le gi
ad verti
ini an</w>
Medi a</w>
b rie
air s</w>
Co sta</w>
j a
st el
d oll
ein gesch
gemein same</w>
Le verk
Wal d</w>
notwen dig</w>
ver dient</w>
ten der</w>
S af
geb il
St amm
er e
mortg age</w>
dro h
st off</w>
F err
Stim me</w>
y right</w>
9 8</w>
w are</w>
H un
wich tiger</w>
k a
ad en
pro jects</w>
manufac tur
T ar
2 2.</w>
e ten</w>
A wards</w>
commer cial</w>
Tur key</w>
suff ering</w>
un able</w>
eff ects</w>
Parl ament
c ut
epis ode</w>
nach mittag</w>
Kel ly</w>
Lau ra</w>
Lad y</w>
in stitu
j i
. -
Lit er
li ert</w>
tra ding</w>
Ru he</w>
Yo ung</w>
Fre un
Wim ble
app er</w>
da ß</w>
st ün
gän ger</w>
g y
justi ce</w>
si denten</w>
ti er</w>
gro w</w>
in ner</w>
8 1</w>
G O
S ex
kno w
pro mise</w>
verur teilt</w>
f eu
Verk auf</w>
stit ution</w>
Ver eine</w>
win ter</w>
Hor st</w>
Grün den</w>
cu p
l ager</w>
ast s</w>
Mic ros
Verwal tungs
fur t</w>
sel n</w>
k op
As sad</w>
Köni g</w>
demon str
eb o
Kör per</w>
Wil hel
Geor g</w>
d ner</w>
sh eim</w>
Hill ary</w>
lin ie</w>
kra ft
St ei
g ged</w>
rei fen</w>
ver stehen</w>
hel ps</w>
Ho f
c el</w>
le ute</w>
N ei
R A
wel come</w>
t ells</w>
w an</w>
k in</w>
lich keiten</w>
ver mutlich</w>
S un</w>
gan gs
Gef än
Sp i
Kri min
ir ing</w>
asse ts</w>
ver treten</w>
n annte</w>
spot ted</w>
kri min
d an</w>
mis sions</w>
W omen</w>
BM W</w>
sen den</w>
ir s</w>
Hö he
Sa chen</w>
Bundes kanz
ar med</w>
b zw
dr ink</w>
Z we
Außen minister</w>
Eintra cht</w>
Urlau b</w>
G ott</w>
f loo
Mess i</w>
politi sch</w>
sich ert</w>
Erfahr ungen</w>
Bro o
br auch</w>
hol te</w>
g keit</w>
Be obach
girl friend</w>
tur ning</w>
Dien st</w>
z y
man chmal</w>
H aup
ni g</w>
leist ung</w>
wen dung</w>
il er</w>
Sp orts</w>
qu es</w>
ann y</w>
ge sti
il ing</w>
r are</w>
glau bt</w>
Eis en
or ing</w>
en des</w>
bzw .</w>
Her z</w>
ver hält
kriti siert</w>
ladi mir</w>
head s</w>
u si
ori enti
9 0
E d</w>
au to
Nachfol ger</w>
ger aten</w>
St art
so mit</w>
ar ch
O x
Wohn ungen</w>
An frage</w>
un ge
So li
i erung</w>
aktu elle</w>
elec tions</w>
sh ment</w>
ari o</w>
sli ghtly</w>
geschä ft</w>
I A</w>
s y</w>
st ick</w>
bi as</w>
alle y</w>
feh len</w>
f ers</w>
ack now
influ ence</w>
mi s</w>
su che</w>
wer t
v o</w>
ri ties</w>
ed ge</w>
Verbin dung</w>
konz entri
ick t</w>
at oren</w>
speci fic</w>
leben s
ep h
requ est</w>
cho ose</w>
er hält</w>
un likely</w>
bu ying</w>
j ene</w>
easi ly</w>
in dem</w>
primar y</w>
gu ter</w>
appropri ate</w>
amm ed</w>
si ed
n ennt</w>
Ph oto</w>
Mitglie d
S ome
supp ly</w>
so ftware</w>
Aus wahl</w>
Auf takt</w>
vie wed</w>
stä tte</w>
Zu g</w>
troub le</w>
cap tion</w>
activi ties</w>
mut maß
K le
co ol</w>
Zwei fel</w>
Du ell</w>
deli ver</w>
ni fer</w>
lan de</w>
iPh one</w>
pro min
g ungs
O ver</w>
rich tige</w>
te ure</w>
ra ising</w>
or ed</w>
Gre e
Kap ital
b ungen</w>
z iel
fir ms</w>
Jord an</w>
is sen</w>
k li
twe eted</w>
A ct</w>
glau ben</w>
O ster
C ub
vor her</w>
T ali
rei cher</w>
ti ous</w>
er seits</w>
M agaz
fiel der</w>
stat tung</w>
mean ing</w>
ser ving</w>
D N
ac qui
funktion iert</w>
Frei heit</w>
app ing</w>
ac ity</w>
de fini
ste te</w>
tar ge
e kt</w>
itä ts
Mor gan</w>
Gre g
1 1
win dow</w>
put y</w>
sch aden</w>
24 .</w>
Iri sh</w>
Man agement</w>
Andre a</w>
st al</w>
vor aus
end gül
ge arbeitet</w>
as su
vor ne</w>
Da vis</w>
comple ted</w>
wieder um</w>
7 9</w>
j ack
Bo den
publi c
glau be</w>
nach richten
ge tragen</w>
Han del</w>
B ol
ex change</w>
fre m
chan ces</w>
su n</w>
eb ack</w>
art al</w>
St aff
gi sten</w>
Schau spieler</w>
amp ton</w>
mer kt</w>
rit es</w>
inn ers</w>
ass ault</w>
M ol
sh aring</w>
decl ared</w>
flu g</w>
pro mot
dien st
Ant i</w>
j unk
I M
T an
Seeho fer</w>
ca p</w>
Ro ad</w>
gu ys</w>
schle ch
tei ls</w>
comple x</w>
äu fer</w>
Wimble don</w>
V ene
Kar ten</w>
Brasili en</w>
vor stellen</w>
Ein druck</w>
cir cum
T ür</w>
fall ing</w>
Bor is</w>
ph ase</w>
H oh
tain ment</w>
pic tured</w>
docum ents</w>
f at
m ün
sh all</w>
be zieh
har dt</w>
gefei ert</w>
k er
hand ed</w>
k an</w>
Ak tiv
füh len</w>
wirk ungen</w>
Pal est
cerem ony</w>
Schie ds
exc ell
br inging</w>
schri ften</w>
Jen nifer</w>
mes sag
Fa vor
Zu letzt</w>
Cent ral</w>
fu el</w>
B VB</w>
europ äische</w>
sp ru
informi ert</w>
lätz en</w>
Nachrichten agentur</w>
won der</w>
mem ber
New castle</w>
determin ed</w>
fas sen</w>
ähn lich</w>
präsen tiert</w>
Lie fer
Sen der</w>
vi g
in stal
Wor ten</w>
ri val</w>
ur sprün
colle ction</w>
vertre ter</w>
ath s</w>
Wor te</w>
Ge danken</w>
rec ords</w>
S em
gu ard</w>
al em</w>
ti mat
wat ched</w>
ici ent</w>
Bay er</w>
grie ch
vol u
& gt
&gt ;</w>
Tim e</w>
r ating</w>
g y</w>
bess ere</w>
gel te</w>
B us</w>
verl or</w>
D ir
be schä
defin itely</w>
D ach
seri ously</w>
ari a</w>
interest ed</w>
Gener ation</w>
Fu ß</w>
sig ning</w>
mili t
eng li
H ör
b te</w>
lear ned</w>
G ot
feat ure</w>
Instit ut</w>
ther efore</w>
Re search</w>
Erdo gan</w>
J .</w>
colle ge</w>
wer tung</w>
Ab out</w>
Ö l
vol un
devel op</w>
ent ation</w>
Guardi ola</w>
S inn</w>
An gehöri
tre at</w>
hil ft</w>
t age</w>
Min dest
Nor den</w>
P lätze</w>
D E
sle ep</w>
custom er</w>
p ause</w>
Phili p</w>
abin et</w>
199 0</w>
Ri es
F est</w>
fe es</w>
wa ff
S E</w>
L A</w>
promis ed</w>
se ts</w>
Regel n</w>
Con servative</w>
erklär en</w>
8 6</w>
Foot ball</w>
7 0
ga y</w>
Zu vor</w>
Ar chi
A N</w>
versich erung</w>
sch la
al li
do gs</w>
co ff
zi p
E rei
cul tural</w>
K ern
For mer</w>
füh lt</w>
it ems</w>
F BI</w>
in ks</w>
mit ten</w>
er öff
d ating</w>
ris ks</w>
lar gely</w>
lat ter</w>
geh olt</w>
schaf tlichen</w>
ga ther
Ath le
entwick lung</w>
Man uel</w>
confi dent</w>
bo un
un ken</w>
Pr o</w>
sch ten</w>
be endet</w>
ini a</w>
wal ked</w>
sekre tär</w>
s low</w>
8 3</w>
Mar y</w>
An schluss</w>
wi ld</w>
dür ften</w>
A i
bri tischen</w>
arti st</w>
bie ter</w>
N ations</w>
f estival</w>
Früh jahr</w>
ro ut
st ent</w>
Bei trag</w>
geb or
di ert</w>
H ur
We ge</w>
wi lling</w>
foc used</w>
K la
Char lie</w>
schl uss
z ün
Lu f
an sicht</w>
head ed</w>
Dom ini
u k</w>
R on
8 4</w>
Gel ände</w>
Anhän ger</w>
Au th
d ar</w>
ung s</w>
as i</w>
veröffent licht</w>
bil den</w>
reco very</w>
ab les</w>
Z ur
verb unden</w>
Re da
op er</w>
sh opping</w>
endor f</w>
y e</w>
meas ure</w>
deci de</w>
T ak
mis ch</w>
Fäl le</w>
spr ing</w>
it als</w>
A sia</w>
inn en
ge dly</w>
hop ing</w>
strugg ling</w>
stän digen</w>
su ici
interest ing</w>
d uty</w>
oni ght</w>
Be fore</w>
hö her</w>
veröffent lich
bo ost</w>
dire ktor</w>
Proje kte</w>
sch ir
möglich erweise</w>
p lo
ch ron
all gem
dau ert</w>
ver kün
opini on</w>
eig net</w>
V an</w>
N AT
vot es</w>
Re por
ep age</w>
D r
sci ence</w>
g ger</w>
quot e</w>
Basi s</w>
k asse</w>
Al an</w>
Dre h
Cent re</w>
Micros oft</w>
verab schie
An n
wa ke</w>
ver gessen</w>
Ide en</w>
is co</w>
k ill</w>
candid ates</w>
produ ce</w>
identi fied</w>
s um</w>
Lis a</w>
2 3.</w>
cra cy</w>
Olymp ia</w>
e si
ta ined</w>
übri gens</w>
Tali ban</w>
all ing</w>
h i</w>
M .</w>
Ban k
8 2</w>
claim ing</w>
Kri sen
ach ers</w>
sour ces</w>
28 .</w>
and elt</w>
increas ing</w>
experi enced</w>
multi ple</w>
Vor schlag</w>
to ward</w>
B rie
ag ent</w>
stän den</w>
8 7</w>
citi zens</w>
Zu gang</w>
Stu denten</w>
soldi ers</w>
w ski</w>
ver sorgung</w>
su r</w>
On ce</w>
ger ei
8 0
friend ly</w>
be darf</w>
re venue</w>
Fi sch
in ated</w>
dre am</w>
Haf t</w>
Hel mut</w>
Lö w</w>
sch al
weiter es</w>
c ue</w>
äl der</w>
M em
Stand ort</w>
rei bt</w>
J uni
o es</w>
klär t</w>
Ob wohl</w>
Un sere</w>
Syri an</w>
ho p</w>
reg ime</w>
Be ck
G il
A T</w>
ent lichen</w>
kü mm
s at</w>
gl ass</w>
ur er</w>
un mittel
pro p
geb lieben</w>
vorsitz ende</w>
Er klärung</w>
sil ver</w>
ig ten</w>
fäh igkeit</w>
at ers</w>
199 7</w>
arbei ts
t un
provi des</w>
Eri c</w>
äd ago
For mel</w>
sol ution</w>
Kir ch
gew ach
doll ars</w>
kom mun
Kommun en</w>
J ami
fer tig</w>
disp la
gesp rä
ket ball</w>
pres ence</w>
at re</w>
tz u
Um gang</w>
ac ade
al ternative</w>
uni versity</w>
con sequ
titu de</w>
free dom</w>
lin k</w>
U p</w>
Be sch
Train ings
N as
ohn t</w>
Sp en
G ut</w>
v y</w>
er mittelt</w>
N ig
Er inn
St ation</w>
V ettel</w>
inte gri
stan z</w>
E ck
ar ily</w>
m o</w>
hu a</w>
kore a</w>
ar ten</w>
eg al</w>
b ling</w>
contro versi
occ asi
verli eren</w>
dig ten</w>
alle gedly</w>
genau so</w>
Stand ard</w>
ein halb</w>
C af
P I</w>
zuneh men</w>
enn y</w>
not ed</w>
her vor</w>
Os borne</w>
Risi ko</w>
Da x</w>
L eh
be t</w>
vi erte</w>
8 9</w>
mom ents</w>
x es</w>
legis lation</w>
m ass</w>
ni schen</w>
N A
über all</w>
bli eben</w>
sh ops</w>
Mar c</w>
lie genden</w>
th es</w>
Verletz ungen</w>
beru f
incredi ble</w>
immer hin</w>
Gewin n</w>
or ded</w>
off izi
lau gh
Fahr t</w>
Produ ktion</w>
am ate
Bot schaft</w>
re moved</w>
what ever</w>
Br us
wechsel t</w>
So ftware</w>
abge schlossen</w>
li gisten</w>
offiz iell</w>
critic ism</w>
Schnei der</w>
ke en</w>
Geburt stag</w>
un er
dec lined</w>
Rück kehr</w>
ger ing</w>
M ein</w>
a ster</w>
Chanc ellor</w>
D amen</w>
posi tiv</w>
g ment</w>
deliver ed</w>
Halb zeit</w>
2 1.
Be wohner</w>
ani c</w>
Wir k
hi bi
klag t</w>
ou l</w>
G ast</w>
bo dies</w>
pay ments</w>
traff ic</w>
Ge wi
fest genommen</w>
zei tung</w>
ar rest</w>
or dered</w>
zusätz lich</w>
ss ed</w>
H ob
au ßer</w>
Jör g</w>
colle agues</w>
Kon sequ
dra wn</w>
conduc t</w>
musi kali
Fel d
Pfle ge
Land tags
head ing</w>
m te</w>
un it</w>
wäh len</w>
k ts</w>
Ra di
Fern sehen</w>
mehr fach</w>
Po st
pop ul
Hel fer</w>
Par ti
las h</w>
appar ently</w>
po t</w>
Ziel e</w>
sh ape</w>
ste cken</w>
gän ge</w>
Juli a</w>
mitglie der</w>
rech net</w>
Mittwo ch
B ie
dri vers</w>
R ä
def ense</w>
cor ner</w>
sy mbo
im mt</w>
b lu
9 2</w>
O h</w>
Gel egenheit</w>
&apos; The</w>
bar keit</w>
nation ale</w>
Vor würfe</w>
si erten</w>
b lau
Ko ch</w>
artic le</w>
Aus wär
gest or
nah me
Ar mee</w>
D al
A BC</w>
cl ing</w>
lauf enden</w>
le gung</w>
sh ut</w>
Gl ück
R it
ul ts</w>
Kom munik
ge fahren</w>
loc ation</w>
atten ded</w>
Chan nel</w>
z el</w>
ent täu
wach sen</w>
ar do</w>
se ek</w>
T C</w>
ot os
Ger hard</w>
loc ated</w>
inspi red</w>
ma d</w>
Rau m
se ats</w>
9 1</w>
T el</w>
wo bei</w>
p tion</w>
Gar ten</w>
CE O</w>
schn eller</w>
dig ital</w>
bur n</w>
tax es</w>
West f
er forder
G ame</w>
us ses</w>
sk i
di vor
rou te</w>
n de</w>
Me er</w>
gre w</w>
Spe zial
disc uss</w>
f illed</w>
Ros en
beauf tra
g alt</w>
leist ungen</w>
schlu g</w>
Mit teilung</w>
über nommen</w>
oph ie</w>
star ten</w>
exist ing</w>
G lau
s ingen</w>
Kar ls
Er war
gefähr lich</w>
Wet ter
provi ding</w>
know ledge</w>
V eg
uni que</w>
gi gen</w>
sy n
gel ungen</w>
Wolfs burg</w>
M s.</w>
ni em
verur sa
he at</w>
Minist eri
For eign</w>
reti rement</w>
k es
allo wing</w>
ar my</w>
er lebt</w>
Gott es
star b</w>
car ds</w>
er leben</w>
Kra ft
Israel i</w>
kl ar
Z ie
fil ed</w>
Sch rö
lin ken</w>
k g</w>
el ected</w>
sel ben</w>
Woh l
se he</w>
Sy mp
jo int</w>
st olz</w>
e ating</w>
kl einer</w>
we tt
öffent liche</w>
ss er</w>
schlä gt</w>
n or</w>
val u
tä tig</w>
k um
schö ne</w>
Mar ke</w>
mel den</w>
pre me</w>
oh len</w>
hi c</w>
K it
republi k</w>
ay ne</w>
d den
en dete</w>
lea ves</w>
bri tische</w>
zeu gen</w>
Schw ein
lu cky</w>
fil ms</w>
Mod ell</w>
car rying</w>
Fra ktion</w>
passen gers</w>
sm aller</w>
schaf tliche</w>
impres sive</w>
Grupp en
Bo ston</w>
ur red</w>
v s</w>
fass ung</w>
v in</w>
mi g</w>
k rei
f ing</w>
Frei burg</w>
F it
fin de</w>
b bed</w>
comp li
ent ing</w>
m einem</w>
Bar bar
Elek tro
M ön
Ch ief</w>
b aden</w>
spo ken</w>
u l</w>
an al</w>
opport unities</w>
announ cement</w>
Hom epage</w>
ra el
an on
k ampf
den de</w>
Wahl kampf</w>
Gree ce</w>
end ung</w>
Vol k
Rel igi
inter ests</w>
In n
Wäh ler</w>
hän gen</w>
bil dungs
fol gte</w>
lich t
V ar
Ar my</w>
alco hol</w>
vide os</w>
inde x</w>
verz ichten</w>
st euer</w>
Um frage</w>
stru c
be zeichnet</w>
G it
z it</w>
v ehicles</w>
H essen</w>
gu ests</w>
S qu
rema ining</w>
Dist ri
Brus sels</w>
Der zeit</w>
mach ine</w>
ta gen</w>
sa al</w>
in y</w>
ther wise</w>
Ermitt ler</w>
B ack
Jahrhunder t</w>
rep ut
Verein s</w>
g g</w>
sch we
p .m.</w>
vertei diger</w>
v ac
be de
pati ent</w>
Colle ge</w>
erlau bt</w>
a x
Schul z</w>
20 .
s la
Strat eg
Dres den</w>
go al
üs sen</w>
neh mer
Gre mi
p el
gr at
air craft</w>
sch rau
Grün de</w>
geplan te</w>
Mas sen
i le
m ten</w>
überrasch end</w>
a than</w>
ang s
propos al</w>
ri tz
tru ly</w>
consum ers</w>
wei ler</w>
allo ws</w>
d l</w>
J am
27 .</w>
schedul ed</w>
sav ings</w>
en h
umstri tt
Deut sch</w>
Au di</w>
expla in</w>
Tre as
schlie ßt</w>
musi k</w>
W all
equi pment</w>
h urt</w>
t dem</w>
dr h
M e</w>
g ru
ak ers</w>
e .
An ne</w>
cat eg
man che</w>
2 6.</w>
mo stly</w>
Angeb ote</w>
E Z
sur vey</w>
indi c
9 3</w>
Zu stand</w>
d re</w>
ini schen</w>
ig an</w>
st ics</w>
kur s</w>
Ant oni
gen ü
Sani erung</w>
er li
ear ned</w>
K ampf
le gs</w>
ma h
Zeu gen</w>
sent ence</w>
sho ck</w>
susp ect</w>
Ver such</w>
Aus einander
R om</w>
ill ing</w>
Her ren</w>
an des</w>
P R</w>
Pas sag
Bus iness</w>
Jes us</w>
tri eben</w>
te ste</w>
Ken ne
Compu ter</w>
p hi
eff ec
Can adi
d al</w>
obvi ously</w>
Er ste</w>
Ver trauen</w>
suppor ted</w>
stat tet</w>
Köni gs
E very</w>
F ire</w>
be halten</w>
h em
l inger</w>
bu te</w>
schrei bung</w>
NR W</w>
clos er</w>
lö sung</w>
mili tä
j o</w>
da hin</w>
Geb iet</w>
rich tigen</w>
ap art</w>
eingel aden</w>
ver däch
durch schnit
Bundes wehr</w>
schwi erig</w>
Her mann</w>
h t
pur su
resour ces</w>
Re al
Indi an</w>
Pfarr er</w>
Ein er</w>
is rael
near by</w>
st ad
sta un
stu dio</w>
Haf t
schri eben</w>
H SV</w>
f at</w>
surpri sed</w>
prot est</w>
C la
ail ed</w>
Sie g
Se x</w>
vul ner
ing er
T ok
Zusch auern</w>
schaff t</w>
Investi tionen</w>
p oll</w>
ru ling</w>
Gemein den</w>
be su
in des</w>
ar chit
re duced</w>
U we</w>
Bahn hof</w>
Flori an</w>
Tex t</w>
D an</w>
att le</w>
zurück ge
w esen</w>
exper im
wi ch</w>
drh ein</w>
gro wn</w>
wen den</w>
th alle</w>
F L</w>
ver wand
ori al</w>
letz tlich</w>
ter ror</w>
Haushal ts
S imp
W ind</w>
F ree</w>
tempor ary</w>
ti ght</w>
sk ills</w>
possi bly</w>
ha fte</w>
refu ge
si vely</w>
se ch
po unds</w>
ent standen</w>
Ear th</w>
50 ,000</w>
Nic ole</w>
größ ere</w>
G ood</w>
sch wan
mid fielder</w>
individu als</w>
initi ative</w>
Kh an</w>
Ern st</w>
Fün f</w>
ra s
bus y</w>
dre ht</w>
ück e</w>
pro be</w>
V en
Ver lag</w>
rä t</w>
LIN K
russi sche</w>
feat ured</w>
än den</w>
Fl or
establi shed</w>
stran ten</w>
ex t
Nürn berg</w>
geb äu
re vi
be finden</w>
F r
H am</w>
M S</w>
Schul den
F ili
Teil nahme</w>
gef äl
Li ons</w>
ang ri
Ba de
ma che</w>
stat ements</w>
Gu i
wor ried</w>
Cru z</w>
gi o</w>
St rom</w>
j ail</w>
All ein</w>
on t</w>
Be ach</w>
verk auf
Inter net
on z
G un
Ar zt</w>
NAT O</w>
J ose</w>
mm ing</w>
por tra
Dah er</w>
er land</w>
För derung</w>
si v
Fe deral</w>
p ace</w>
histori schen</w>
ac kt</w>
ver mu
deg ree</w>
S N
Austri a</w>
ter rit
hous es</w>
Dar über</w>
der ten</w>
on able</w>
negoti ations</w>
direc tion</w>
er gi
f ak
Jami e</w>
o .</w>
am er</w>
k atholi
extre m</w>
V ö
vie wers</w>
H all
A I
er ter</w>
außer halb</w>
achie ve</w>
P ier
Gi pfel</w>
Wag ner</w>
Hen ry</w>
rela tiv</w>
Entschei dungen</w>
ü hren</w>
priv aten</w>
Hosp ital</w>
er o</w>
ma ßen</w>
Re st</w>
He avy</w>
con stitu
Flüchtl ing
Rent en
ans a</w>
Bu dget</w>
Finan cial</w>
pregn ant</w>
stra iner</w>
Al ten
y ards</w>
Arbeit geber</w>
Flüchtl ings
scienti sts</w>
er weiter
Part ner
or gt</w>
bre m
gr and</w>
den den</w>
st unden</w>
us ern</w>
boy friend</w>
z ation</w>
B am
R af
be u
hei ßen</w>
b rief</w>
n den</w>
Lin ken</w>
B lue</w>
nen nen</w>
Pot s
Wachst um</w>
Jos ep
ta ins</w>
ri vals</w>
blo ck
poin ted</w>
sp ei
i o</w>
n one</w>
T anz
Nieder sach
Bru der</w>
ru led</w>
h its</w>
exer cise</w>
ru gby</w>
gemä ß</w>
b ath
gra de</w>
ehr en
Ein fluss</w>
Dor f</w>
p ath</w>
G ary</w>
hist or
Mann schaften</w>
cre ating</w>
be sucht</w>
cover ing</w>
dien ste</w>
E din
wonder ful</w>
gol f</w>
Th or
ra id</w>
off enen</w>
re y</w>
na cht</w>
Mit t
Al ternative</w>
ini sche</w>
O K</w>
kl are</w>
t at</w>
dau er
sitz ung</w>
p ink</w>
Kon ta
re alist
wi l
T yp
Dor f
timat ely</w>
Mi ami</w>
ück sich
easi er</w>
ver mei
enti rely</w>
or en
Hä user</w>
k unde</w>
s al</w>
mo di
ü t
trä gen</w>
men te</w>
co de</w>
T ages</w>
s ä
Milli on</w>
b ten</w>
ts ch</w>
D ut
Wer t
consu mer</w>
H öh
Josep h</w>
Spie gel</w>
ges orgt</w>
m um</w>
ent gegen
möglich keiten</w>
Po wer</w>
hor ri
Do wn
tran sport</w>
jour ney</w>
An sicht</w>
b latt</w>
ge stri
confli ct</w>
Waff en</w>
j ing</w>
ear nings</w>
fal sch</w>
figh ters</w>
them ati
G ab
mis si
Verhält nis</w>
Stad tt
New s
fach e</w>
erk annt</w>
As si
IS IS</w>
ro yal</w>
Qu ar
J im
b ac
demo k
Isla m</w>
wi t
199 5</w>
en k</w>
Prof i</w>
Mos cow</w>
T ories</w>
bo at</w>
Gar ten
lang sam</w>
pres ented</w>
e ast</w>
Fel d</w>
cre w</w>
Be glei
conv inc
dur fte</w>
Ko sten
ni er</w>
te ur</w>
Ni veau</w>
ru fen</w>
ll a</w>
dev ast
wir ft</w>
posi te</w>
Ar gum
E con
o the
hil fe</w>
Franc isco</w>
Sor gen</w>
rei chs</w>
ab gesch
t ations</w>
cur ren
Bran che</w>
P R
J az
apart ment</w>
Gol f</w>
2 2
war tet</w>
3 1.</w>
I ts</w>
Fre m
inf lation</w>
herr scht</w>
erziel te</w>
199 4</w>
dau ern</w>
foot age</w>
kit chen</w>
Tre ff
aus reich
zi p</w>
begeist ert</w>
po und</w>
Vir g
Stu dien
Carol ina</w>
Städ ten</w>
P D</w>
ni ght
National spieler</w>
zeich nen</w>
Vor stellung</w>
J ens</w>
p ack</w>
par tei
Man fred</w>
Ral f</w>
Tr otzdem</w>
Ear lier</w>
Pr inc
j f</w>
re pla
Z DF</w>
dar aus</w>
lich em</w>
C ann
r in</w>
or row</w>
Der by</w>
quar ters</w>
hy th
2 9.</w>
develop ing</w>
vill age</w>
In frastru
controversi al</w>
u tions</w>
be handelt</w>
basi c</w>
Wil son</w>
zusätz liche</w>
potenti ally</w>
excell ent</w>
aus län
respon ded</w>
di stance</w>
Un ser</w>
gesch ei
Gr öße</w>
Weihnach ten</w>
kti v</w>
Bau m
grün dete</w>
z iger</w>
li mit</w>
comp lic
stre am</w>
ster ed</w>
Ther ap
Vertei digungs
erhöh t</w>
R ab
per t</w>
fä hig</w>
ben en</w>
k is
de part
Dam als</w>
ph il
sc andal</w>
Ver stän
ha ften</w>
ri de</w>
Ma inz</w>
Justi z
os ing</w>
rec ru
R ap
ger ät</w>
sicher heit</w>
E S</w>
st ein
duc ing</w>
E p
Re public</w>
Person al</w>
o mi
Bil anz</w>
under stood</w>
cap acity</w>
For derung</w>
fl ying</w>
dig it
cover age</w>
plat form</w>
tin y</w>
j i</w>
K eller</w>
An zahl</w>
lau tet</w>
Qu al
il leg
L im
Jap anese</w>
t form</w>
tur ns</w>
commit ment</w>
def ender</w>
B illi
gar den</w>
E mi
Sch ne
S ollte</w>
ut ed</w>
to t</w>
Feh l
t ment</w>
F C
prin cip
fei ert</w>
mi st
Verbrau cher</w>
messag es</w>
Stutt gar
Bi sher</w>
Lin k
Fel ix</w>
Industri e</w>
Bi o
un less</w>
expres sed</w>
Aus bau</w>
mot or
Untersuch ung</w>
Sch wen
ple ase</w>
anim als</w>
B em
Mex ik
For m
den er</w>
ter ien</w>
Juli an</w>
Vorstand s
p ft</w>
man agers</w>
AF P</w>
Him mel</w>
g ut
be stimmt</w>
ens ation</w>
go w</w>
entsprech end</w>
challeng es</w>
d .</w>
S n
competi tive</w>
ac o</w>
pan el</w>
eri a</w>
9 4</w>
el low</w>
bedro om</w>
Tari f
persön lich</w>
sh of</w>
Wis sen</w>
D utz
Sch ick
Zun ächst</w>
mo dels</w>
rec orded</w>
zeh n
visi tors</w>
it es</w>
größ er</w>
analy sis</w>
b rech
Mich elle</w>
Bo b</w>
brilli ant</w>
Ein richtung</w>
Leb ens</w>
bl ame</w>
B ord</w>
räum e</w>
r ing
pos sibility</w>
y l</w>
S ong</w>
ide as</w>
exper t</w>
nah e
R ott
si v</w>
na mi
berei ten</w>
te acher</w>
Gesund heit</w>
th or
pri son
mar ked</w>
Bet ra
Ä gyp
Bri s
Ro ger</w>
astrop he</w>
Ver band</w>
inde ed</w>
cut ting</w>
Leverk usen</w>
or te</w>
at mosph
199 6</w>
li sted</w>
ss es</w>
ch air</w>
terror ist</w>
EZ B</w>
ent ary</w>
G an
k am
g ging</w>
ein iges</w>
stun ning</w>
los ses</w>
ow ski</w>
O L
Gol den</w>
har mon
part ners</w>
te sted</w>
consider ing</w>
ex t</w>
si x
I II</w>
Stür mer</w>
zäh len</w>
k le
zentr ale</w>
Bel ast
convers ation</w>
or al</w>
de di
Su pp
har m
ach ed</w>
Tra dition</w>
li ste</w>
kl age</w>
ran k</w>
Wohn ungs
dres sing</w>
sich ten</w>
industri e</w>
ini en</w>
sch är
prof essor</w>
a .</w>
tran spar
ne ck</w>
Welt meister
initi al</w>
wi der</w>
per form</w>
fäl lig</w>
An y
be comes</w>
Sän ger</w>
under standing</w>
se as</w>
dri ven</w>
Republi k</w>
n ations</w>
sch ein</w>
acci dent</w>
y outh</w>
ol as</w>
tom s</w>
Jon athan</w>
suici de</w>
s amt</w>
hab er</w>
Vorsitz enden</w>
T es
Westf alen</w>
Sin ne</w>
vor erst</w>
per formed</w>
P y
B ack</w>
se where</w>
Co ast</w>
ash ed</w>
k nee</w>
zwei mal</w>
D A
ent liche</w>
mat ters</w>
mo ves</w>
Ein führung</w>
Rest aurant</w>
se ction</w>
Bla ir</w>
Akti en</w>
Aus sage</w>
kun fts
ai de</w>
Die go</w>
Rei ch
Mid dle</w>
lei hen</w>
Vorberei tung</w>
eg ten</w>
supp osed</w>
ru g</w>
Jun ge</w>
fer red</w>
stor es</w>
retur ning</w>
wirtschaf tlichen</w>
ens es</w>
kör per
an lagen</w>
as sen
C er
Innen stadt</w>
schie ßen</w>
zu ständig</w>
religi ous</w>
Ch urch</w>
Qu artal</w>
Lit er</w>
vor bereitet</w>
a o</w>
Demon stranten</w>
o k</w>
val ues</w>
tra vel
con ver
t ons</w>
argum ent</w>
circum stances</w>
te stens</w>
ge sucht</w>
Schwar zw
gr enze</w>
Rol and</w>
Her zen</w>
zurück zu
de aths</w>
Mil ler</w>
kan did
mi stake</w>
kürz lich</w>
lear ning</w>
C oll
rei ter</w>
T A</w>
Ha w
b at</w>
Re volution</w>
J ak
für s</w>
th ei
bann ed</w>
C ath
vor gestellt</w>
impos sible</w>
at z</w>
lad bach</w>
n ose</w>
Mat the
das hi
Ab stimmung</w>
Re p
sati s
Bei jing</w>
den ke</w>
enter ed</w>
enk o</w>
P ist
ver hand
199 2</w>
erh ö
Eng li
Lux em
col um
pay ment</w>
angeb lich</w>
Sü den</w>
Antoni o</w>
ad ap
En ter
Halb finale</w>
strä ger</w>
a gen</w>
abge ord
haus es</w>
gew ähr
Kore an</w>
B üch
Aus gleich</w>
ic an</w>
verletz ung</w>
drin gend</w>
d ollar</w>
J im</w>
visi ted</w>
ca de
er ous</w>
L ich
Re form</w>
An lage</w>
lä ss
To bias</w>
a side</w>
ple as
Virg inia</w>
Eig entlich</w>
lar ger</w>
ü mer</w>
dramati c</w>
quir y</w>
cat ch</w>
Stur m</w>
Vier tel</w>
th inks</w>
I ran
we ak
verpflich tet</w>
P kw</w>
é e</w>
kriti sierte</w>
V an
J ason</w>
Publi c</w>
Wider stand</w>
M ak
co alition</w>
Jahrzeh nten</w>
l ing
bor ro
kir che</w>
9 00</w>
dden ly</w>
L as</w>
fe ars</w>
deep ly</w>
Sa int</w>
wor ry</w>
ob lig
c er</w>
Barbar a</w>
Fen ster</w>
conne ction</w>
Ul rich</w>
respon d</w>
vorge sehen</w>
Wel che</w>
I denti
P le
For ce</w>
In fo
fo under</w>
Let zte</w>
cru cial</w>
arbei ter</w>
Edin burgh</w>
is s
. com
w ahlen</w>
Behand lung</w>
v it
ser ie</w>
f onds</w>
Fo undation</w>
entsprech ende</w>
N .</w>
initi ally</w>
A dri
w elle</w>
posi tion
du le</w>
Grund lage</w>
Sti ll</w>
feh l
sh el
ein deu
ge öffnet</w>
Rück stand</w>
histori c</w>
Schwarzw älder</w>
pp s</w>
Wer ke</w>
Tra di
extre me</w>
Kar dashi
N S
chil d
9 7</w>
Er leb
Ha ving</w>
p uni
an ger</w>
ri min
en gen</w>
ec ting</w>
me tho
con servative</w>
corpor ate</w>
st able</w>
Schü ler
v on
Fort sch
eb t</w>
vers ary</w>
ti ed</w>
s ought</w>
Veg as</w>
Nutz ung</w>
ump h</w>
Kü che</w>
tre e</w>
gew innt</w>
stit ute</w>
G ig
H ung
app ly</w>
A y
Brand enburg</w>
L ay
wär ts</w>
j ag
Glas gow</w>
All tag</w>
bar er</w>
gel ernt</w>
gest immt</w>
Ben j
an nen</w>
symp ath
minim um</w>
Um satz</w>
Le g
terror ism</w>
franzö sische</w>
accep ted</w>
st au
Mün ster</w>
p ushed</w>
Em ma</w>
14 .
Kat eg
s ani
spe z
mem ory</w>
Ira k</w>
i al</w>
I D</w>
We b</w>
g am
grün den</w>
den cy</w>
ern st</w>
Betei li
Ber g</w>
M eine</w>
appro ved</w>
13 .
el son</w>
ste pped</w>
äum en</w>
Zwei t
ac com
ar ity</w>
ungs weise</w>
glei che</w>
b acks</w>
ti ef
z ess</w>
Vol k</w>
sur face</w>
m ass
An ders</w>
N ag
da fri
An lass</w>
sna p</w>
Musi c</w>
ent in</w>
C ook</w>
Schwe den</w>
tic o</w>
pe te</w>
Dar m
re action</w>
Pra xis</w>
Haush alt</w>
gestor ben</w>
organi siert</w>
höh ere</w>
Beh in
Ev ans</w>
gro unds</w>
W ahlen</w>
arbei tung</w>
Ka der</w>
K ä
desig ner</w>
g ent</w>
sch rän
dien en</w>
def ic
M A</w>
F li
att orney</w>
leng th</w>
glück lich</w>
Konfli kt</w>
co ast</w>
rit z</w>
Gor don</w>
f abri
Ste ven</w>
ti scher</w>
ass ung</w>
ur ged</w>
H of</w>
ini eren</w>
ser ves</w>
berich teten</w>
for mu
offen sichtlich</w>
Gesch ichten</w>
si ty</w>
For derungen</w>
f is
Vor sprung</w>
ath on</w>
pie ces</w>
schlä gen</w>
kämp ft</w>
Ver besser
lan den</w>
mit einander</w>
scen es</w>
air e</w>
ann ten</w>
Re chte</w>
E tw
P ul
ver gleich
wor ld
Gew inn
clas sic</w>
den d</w>
ent stand</w>
y ard</w>
statt finden</w>
Neu er</w>
r d</w>
S ä
K auf</w>
k üh
u la
tz ei
ti cket</w>
em a</w>
kir chen</w>
se mb
Pap ier</w>
T oten</w>
Di ana</w>
bri ght</w>
anim al</w>
Wei ß</w>
amerik anische</w>
den kt</w>
fo li
e gi
Ser vices</w>
Ad res
Au ge</w>
Bab y</w>
geschaff en</w>
ges und
exc ited</w>
Höhe punkt</w>
beson deren</w>
reve al</w>
h ang
d ley</w>
Geb ie
fi x
be hin
geb rau
happ ening</w>
per c
Hu b</w>
I N</w>
Nach richt</w>
G lo
D ach</w>
nor thern</w>
fail ing</w>
lei det</w>
strugg le</w>
ch at</w>
avo i
leb te</w>
Ot to</w>
hei rat
lei den</w>
E g
E lli
Ex tre
v .</w>
te sting</w>
imag ine</w>
ge prä
dan kte</w>
f ting</w>
ig nor
a ders</w>
war f</w>
m ingham</w>
schaf ter</w>
b ün
a ke</w>
Spra ch
Mar cel</w>
kar te</w>
for get</w>
at edly</w>
Etw a</w>
Beru f</w>
I an</w>
progra ms</w>
p ull</w>
Premi ere</w>
Herausforder ung</w>
Klo pp</w>
su rely</w>
In c</w>
N BA</w>
sol o</w>
verb andes</w>
c ell</w>
Se a</w>
pf lan
sp h
retur ns</w>
fra g
Inter essen</w>
ali a</w>
A cade
Zu stimmung</w>
So zi
198 9</w>
att end</w>
st rie
pass ing</w>
dan ger</w>
public ly</w>
ne tte</w>
tri eb</w>
Benj amin</w>
Z immer
do ors</w>
J ähriger</w>
ktur en</w>
o therwise</w>
famili ar</w>
B lan
st euer
j ub
Wir kung</w>
sou thern</w>
T onnen</w>
nach hal
rela tions</w>
gr y</w>
sever e</w>
Kon junk
ar zt</w>
Ro ck
Aus wirkungen</w>
o x
l ots</w>
Hö ch
r er</w>
oo s</w>
gest o
perfe kt</w>
V ill
m men</w>
Lit tle</w>
ab and
ist ische</w>
B rief</w>
Mu se
r oten</w>
in frastru
medi c
weit gehend</w>
Ver sion</w>
n es</w>
krä ftig</w>
15 .
Sp eci
geneh mi
requ ire</w>
fa ith</w>
Per haps</w>
Fir men
wen ig
reput ation</w>
mi x</w>
S now
ver wal
Bu d
stu dies</w>
D A</w>
tran spor
Soli dar
R T
Nachbar n</w>
sy chi
th eit</w>
je kte</w>
Bon n</w>
erfol grei
fel der</w>
os si
obvi ous</w>
Jah re
hunder t</w>
Ein wohner</w>
Po kal</w>
tax pa
Ra iner</w>
d ying</w>
El tern
v ast</w>
B ut
W erte</w>
tt en
be stehen</w>
ac ke</w>
ho ff
äl ter</w>
gh ten
rela tively</w>
Regi onen</w>
gere cht</w>
o v</w>
E C
fan gen</w>
be wahr
ne tt</w>
Sy n
an ci
Ru h
stag es</w>
Pal äst
um fas
ni sche</w>
G A</w>
and s
re lief</w>
ph en
ce an</w>
pos ed</w>
pr int</w>
schö nen</w>
Bri an</w>
str ing</w>
J e</w>
grund sätzlich</w>
wa ve</w>
Bezieh ungen</w>
W .</w>
fin ance</w>
Fre und
ban king</w>
sel ber</w>
jo y</w>
lie ge</w>
Bir mingham</w>
pack age</w>
lob te</w>
H em
ban e</w>
C hr
wa chen</w>
In zwischen</w>
et ings</w>
supp orting</w>
Mie t
LIN E</w>
absol ute</w>
Klin ik</w>
bom b</w>
enjo ying</w>
ten en</w>
fei er</w>
1 st</w>
ch est
Um setzung</w>
wid ely</w>
lo ans</w>
s burg</w>
türk ischen</w>
Jer us
embar ra
we hren</w>
W he
Tr end</w>
B urn
comm unities</w>
R ach
dr inking</w>
the ater</w>
tz er</w>
auth ority</w>
Sant a</w>
rep orting</w>
f ed</w>
r ein</w>
volu tion
um zu
I stan
Luf th
spra chen</w>
L ohn
at a</w>
wi tn
fund ament
kl ingt</w>
ge gründet</w>
med al</w>
K amera</w>
acknow le
O ri
m on</w>
aff ord</w>
Su preme</w>
Im mer
D V
Br y
celeb rate</w>
Lei t
le ment
Win dows</w>
B ang
min i
Augs burg</w>
ti ckets</w>
tion ally</w>
Grü n</w>
D ad
A v
sta dium</w>
W an
th row</w>
Wissen schaftler</w>
L ager</w>
hor se</w>
mö chten</w>
g nisse</w>
Tie f
disku tiert</w>
nachrichten .at</w>
Al len</w>
acc ur
win den</w>
j ü
ar ch</w>
jud ges</w>
F our</w>
re jected</w>
ck ten</w>
hin zu
C onn
Charl otte</w>
stoff e</w>
te achers</w>
Gre en
g al
ks amkeit</w>
st etten</w>
Tu S</w>
zi gen</w>
Freun din</w>
coun ts</w>
verbess ern</w>
schei den</w>
kul ture
P l
An dere</w>
en for
Män nern</w>
sich ern</w>
il lu
Län der
F erg
s ers</w>
ali en</w>
Fe derer</w>
g it
er es</w>
Frie den</w>
Pla y</w>
Ger äte</w>
da vor</w>
Ver dacht</w>
j et</w>
z eln</w>
viol ent</w>
gh ton</w>
1, 5</w>
no tic
shoul der</w>
el i
min ster</w>
stam mt</w>
1 30</w>
Z y
Ferr ari</w>
Gro ße</w>
Ein schätzung</w>
Schw ä
wer ten</w>
finan zi
verwen det</w>
Energ y</w>
wen de</w>
Flu cht</w>
Eli za
zuneh mend</w>
k tu
Fa mily</w>
belie f</w>
lie be</w>
deli very</w>
be wegen</w>
p en</w>
Inde ed</w>
In tel
te ch</w>
O ver
wir e</w>
mon at
Untersuch ungs
t ask</w>
Georgi a</w>
threat ened</w>
Behör de</w>
ein es
ur al</w>
Nachwu chs</w>
F ed</w>
beglei tet</w>
fav our</w>
Beru fung</w>
o un
hör t</w>
t oll</w>
Ter min</w>
Canadi an</w>
füh le</w>
de vice</w>
bestimm ten</w>
ack le</w>
Christop her</w>
ban k
Z enti
sich erung</w>
größ eren</w>
You Tube</w>
short ly</w>
Hand y</w>
C lo
L eben
sub stan
Temp o</w>
Koali tions
Bl um
Städ te</w>
o va</w>
associ ated</w>
qu iet</w>
sport ing</w>
Bri dge</w>
ver bot</w>
Taus ende</w>
Aktiv itäten</w>
on en
be zahlen</w>
graph y</w>
b aum</w>
D S</w>
Cam bridge</w>
app t</w>
st res
Druck ansicht</w>
ap preci
Pro fi
Temper aturen</w>
g ü
s mart</w>
mit glied</w>
wus ste</w>
Neu es</w>
fli ghts</w>
sp itze</w>
bestimm te</w>
gen er</w>
c en
K im
posi tions</w>
par liament</w>
r t</w>
Indu strie
gesch ickt</w>
nä her</w>
Niedersach sen</w>
schätz en</w>
deut sch</w>
ari schen</w>
impro ved</w>
jah res
th ank</w>
è re</w>
räum en</w>
ear n</w>
di s</w>
17 .
li st
caus ing</w>
Treas ury</w>
pre h
exc iting</w>
inten ded</w>
Rob in</w>
pe kt</w>
B R
jen igen</w>
gener ally</w>
V it
bo w
ö ch
Schl oss</w>
vi l</w>
techni cal</w>
N um
W ell
So cial</w>
squ are</w>
bi ke</w>
assi stant</w>
Ver halten</w>
th ou
f ile</w>
K ni
Egyp t</w>
passi eren</w>
ri k
prot ests</w>
F otogra
m ol
gen e
Telef on
j em
al t
ch ain</w>
erinn ern</w>
hand le</w>
Gro ßen</w>
Lufth ansa</w>
F ul
16 .
bo und</w>
De sign</w>
son sten</w>
tra ge
L esen</w>
ri ss</w>
amm elt</w>
entsprech enden</w>
reg ularly</w>
S her
Eröff nung</w>
on going</w>
ministeri ums</w>
Les er</w>
erst es</w>
k assi
Touri sten</w>
Rh ein</w>
p h</w>
Nor drhein</w>
e he</w>
ga p</w>
ein gestellt</w>
s now</w>
Pa ar</w>
x en</w>
ber g
K ing
18 .
Al bert</w>
me chan
ar ab
l v
i red</w>
conc e
Ur sache</w>
Führ ungs
klär en</w>
c ells</w>
grün dung</w>
stre cke</w>
S eh
ul a</w>
indepen dence</w>
Stuttgar ter</w>
reti red</w>
Get ty</w>
i deal</w>
é s</w>
fin gen</w>
distri ct</w>
kti ven</w>
fi x</w>
Bundeskanz lerin</w>
J obs</w>
H ände</w>
ben e</w>
eu ro
dar y</w>
har d
Fei er
po wers</w>
law yers</w>
So ur
continu ing</w>
b art</w>
An dr
betre u
gewach sen</w>
ür zt</w>
Be weg
Bür o</w>
be zahlt</w>
be deut
Ver fol
vulner able</w>
verk aufen</w>
We hr
tom orrow</w>
immedi ate</w>
Steu ern</w>
aus schließlich</w>
0 7
forder ungen</w>
w ächst</w>
J essi
R eh
le ge</w>
am ents</w>
clo thes</w>
I R
relev ant</w>
in son</w>
Min der
Er kran
Se con
K lar
Mach t
ON LINE</w>
dar aufhin</w>
Sch uss</w>
sen ding</w>
re ven
ali ve</w>
susp ended</w>
ch or</w>
An dro
Lei ch
offen sive</w>
Klas si
ump ing</w>
w ly</w>
dr y</w>
govern ments</w>
ch ri
Glob al</w>
g rant</w>
flu g
disa ster</w>
O S
ag a</w>
v ital</w>
m mer
Immobili en
al tung</w>
eu ch</w>
perman ent</w>
Beschäf tigten</w>
Bunde strainer</w>
wis se</w>
w un
Mittel punkt</w>
Ar e</w>
er fahr
di vision</w>
Lab or</w>
Sor ge</w>
Wen ger</w>
onn a</w>
P ie
tru g</w>
dre w</w>
w inners</w>
Hand el
mark eting</w>
äum t</w>
Sing ap
Mitglie dern</w>
fel d
d ges</w>
seas ons</w>
eigen er</w>
neh mern</w>
al ism</w>
spar en</w>
all eine</w>
tr end</w>
Mach ines</w>
t onight</w>
Zwi schen</w>
ele gan
em bra
susp ici
un gewöhn
Amerik aner</w>
N D</w>
cu sto
Mo ore</w>
stell ungs
su s</w>
Än derung</w>
ül ern</w>
recei ving</w>
R and
Ord nung</w>
Wat son</w>
Vor haben</w>
Gra ham</w>
Eliza beth</w>
öh ne</w>
vi es</w>
sp err
arbei tete</w>
hei mischen</w>
ti a</w>
Immer hin</w>
wh el
Co .</w>
produc er</w>
woh l
Wh ere</w>
cri cket</w>
Schl us
fin dings</w>
tal ked</w>
Or t
C las
be antwor
wi es
sex tre
ff er
Mi o.</w>
Ä hn
Ph ase</w>
Tei len</w>
lan ce</w>
Gem ü
o is</w>
T raum</w>
Mitarbei tern</w>
Wer der</w>
Gä sten</w>
de vices</w>
re place</w>
ehr t</w>
Mar t
sub si
govern or</w>
a im</w>
H ab
H us
St au
so ft</w>
Fron t</w>
gef angen</w>
Finanz minister</w>
wer en</w>
erfü llt</w>
In don
ver halten</w>
shar eh
fol genden</w>
re mark
str ö
zu ver
Mon t
f inger</w>
Beteili gung</w>
Sp ä
Ander son</w>
f ill</w>
Frieden s
Distri ct</w>
Gewer be
Ak tion
k ol
Bul g
h oo
An bieter</w>
abili ties</w>
verlan gt</w>
tar gets</w>
Ein igung</w>
sp lan
Veranstal ter</w>
Regisse ur</w>
offizi ellen</w>
gem ents</w>
Jessi ca</w>
wie gend</w>
el ed</w>
S l
sh or
G as</w>
enn a</w>
man gel
dis cip
sp ät</w>
National mannschaft</w>
lo k
Mo un
An schlag</w>
mo tiv
put s</w>
Dro gen
gh ly</w>
G ul
L auf</w>
D R
Bü cher</w>
Lu st</w>
interessi ert</w>
fu ß
Qualifik ation</w>
A ni
in ken</w>
S amm
repe atedly</w>
Bau m</w>
vi rus</w>
ut zen</w>
spiri t</w>
Wahr heit</w>
Schieds richter</w>
b ach
Me da
y s
. C.</w>
be suchen</w>
si ght</w>
Salz burg</w>
opp ed</w>
G o</w>
Gemein schaft</w>
han del</w>
Auf enth
sel ection</w>
b aut</w>
At mosph
athle tes</w>
stri ert</w>
Tat too</w>
spar tner</w>
Forsch ungs
wirtschaf tliche</w>
R ick
Ro oney</w>
d son</w>
Si x</w>
heav ily</w>
H D</w>
re move</w>
ad ults</w>
fro h</w>
unterschie dlichen</w>
ag ents</w>
ell i</w>
k shire</w>
ad ds</w>
an ie</w>
le ads</w>
M E
Christ ine</w>
A A</w>
über nimmt</w>
spra ch
ev angel
Bra un
ss ment</w>
wor ten</w>
Prü f
argu ed</w>
x el</w>
Flücht lingen</w>
her o</w>
t nis</w>
el and</w>
re bel
a f</w>
ne ut
ein iger</w>
be trägt</w>
b low</w>
ausge schlossen</w>
spokes woman</w>
Re gen</w>
Schrö der</w>
fortun ately</w>
p reise</w>
h te</w>
war nte</w>
desi re</w>
In ten
Ph otos
sa u</w>
Schä den</w>
är z
therap y</w>
L ast
Da ve</w>
E ich
Mil an</w>
We g
auf merk
Land wir
olo gen</w>
industri al</w>
A U
Char ak
Invest oren</w>
Me tho
Gegent eil</w>
Sch li
fa chen</w>
applic ation</w>
gan gs</w>
Mön ch
men tion</w>
wel cher</w>
bi an</w>
ing u
ö glich</w>
comb ined</w>
jo ining</w>
Gefän gnis</w>
A ward</w>
ag u
f esti
re tten</w>
mp tion</w>
A mon
vot ing</w>
Hist ori
ge gn
O ut</w>
tr äch
stri kes</w>
Mat erial</w>
man age</w>
An mel
sh oot</w>
Ge wal
buil dings</w>
präsen tieren</w>
lo wing</w>
B ak
vel op
stru cture</w>
Hein rich</w>
Verk auf
W under</w>
Rück en</w>
Vor der
gem essen</w>
ub le</w>
Gesch win
Jim my</w>
t led</w>
zu stellen</w>
Grund schule</w>
Jerus alem</w>
y ellow</w>
demok raten</w>
t ackle</w>
jewei ligen</w>
Porn Hub</w>
betro ffenen</w>
kur zen</w>
del eg
rep lied</w>
erhö hen</w>
all as</w>
zü ge</w>
Innen minister</w>
Mar ie</w>
Mor gen
clas h</w>
sta yed</w>
Prof is</w>
ver wei
Ab end
cou p
Un gar
ätz e</w>
Que ens
Fe der
under land</w>
bu l</w>
si ck</w>
S anders</w>
bürger meister</w>
al lies</w>
y o</w>
leg ten</w>
19 .
ein ger
proper ties</w>
ul p
al ties</w>
fün f
or ous</w>
pro gres
maxim um</w>
an de</w>
ent lang</w>
ari sche</w>
gesch ehen</w>
Ak tionen</w>
In solven
mer zen</w>
tri bute</w>
ou ting</w>
Quadrat meter</w>
fe wer</w>
s mann</w>
har der</w>
main tain</w>
DN A</w>
lie st</w>
el im
regi on
b ell</w>
ent ru
R oss</w>
pra c
An walt</w>
B ä
N ext</w>
lux ury</w>
A gency</w>
Acade my</w>
lei terin</w>
coff ee</w>
shi ft</w>
li ft</w>
ver mis
P rei
konz ern</w>
rou gh</w>
son gs</w>
eng ine
an gry</w>
o st
he art
K amer
Ein kauf
Bris bane</w>
sa ß</w>
Reak tion</w>
har dly</w>
Premi er
sor gten</w>
Afri ka</w>
b and
Her tha</w>
nahe zu</w>
ei ster
S wan
V iel</w>
app y</w>
O st</w>
West minster</w>
d g
agen cies</w>
aff ect</w>
cri tics</w>
organiz ation</w>
P sych
K .</w>
on er</w>
De f
P in
jack et</w>
Swi tz
Jer sey</w>
swe et</w>
fac tor</w>
San ktionen</w>
ho ffe</w>
poll s</w>
sa chen</w>
Vertei diger</w>
auf gestellt</w>
curren cy</w>
Kap it
gesch ie
st ated</w>
hou se
Jos h</w>
Zu ge</w>
Geschä fte</w>
Ro d
sor ry</w>
D anny</w>
Erinn erung</w>
enth usi
am e
D ä
3 5
extra ordinary</w>
civi li
Vor teil</w>
F und</w>
A D</w>
mark t
fest gestellt</w>
verstär kt</w>
g otten</w>
anti cip
a wards</w>
Aus sagen</w>
Ange sichts</w>
gan g
Ä u
Ri ver</w>
che z</w>
g oods</w>
in quiry</w>
docum ent</w>
Wal ker</w>
Inde x</w>
der ing</w>
K ick
hal t
kehr en</w>
M eh
anni versary</w>
gebe ten</w>
att acked</w>
g ler</w>
sen der</w>
convi cted</w>
E ber
Dem nach</w>
su ddenly</w>
s in</w>
te es</w>
invol ving</w>
Smart phone</w>
Abgeord neten</w>
.0 3.
n ütz
ber ücksich
br ings</w>
stu ck</w>
Ko operation</w>
B äume</w>
pro jekt</w>
as st</w>
follo wers</w>
B ull</w>
gesch ütz
Mar gar
b ills</w>
schn ell
Pr os
en sion</w>
her um</w>
Inte gration</w>
f lie
le c
ung laub
V alley</w>
Stat t</w>
Rang ers</w>
Pap st</w>
J ur
ts ei
sequ ent</w>
Lauf e</w>
facili ties</w>
Direc tor</w>
sol cher</w>
ch anc
ster ben</w>
zah lung</w>
expec tations</w>
charac ters</w>
Schn itt</w>
pri or</w>
champi ons</w>
Strateg ie</w>
Al bum</w>
str o</w>
Switz erland</w>
Rück tritt</w>
ber at
Akti en
enzi al</w>
k ne
C av
tri t
Repor ter</w>
Disk ussi
informi eren</w>
Vide os</w>
der es</w>
spec tac
v es
res cue</w>
in der</w>
er le
i z</w>
Z au
Istan bul</w>
In f
con test</w>
zei ge</w>
frau d</w>
re placed</w>
col our</w>
com pete</w>
L ot
fanta stic</w>
w ag
an genommen</w>
ak t</w>
ff ene</w>
L aden</w>
ausge zeichnet</w>
Verän derungen</w>
E ch
wett bewer
Proje kt
ber aten</w>
occ asion</w>
Be au
noti ce</w>
na h</w>
Amon g</w>
celeb rity</w>
Ch am
s and
import ance</w>
d é
back ground</w>
Un abhängi
Ver lust</w>
gew äh
Dir k</w>
six th</w>
Gegen satz</w>
conduc ted</w>
achie ved</w>
hü ter</w>
I hren</w>
A G
ge on</w>
hin ten</w>
Be cker</w>
Ludwi g</w>
strugg led</w>
199 3</w>
ge z
fün ften</w>
ver boten</w>
tel ef
ho ff</w>
wa i
Fa ir
Betro ffenen</w>
effec tively</w>
h n</w>
Ger man
be aten</w>
Comm ons</w>
op posite</w>
gün st
Brü cke</w>
w ning</w>
de puty</w>
Vor feld</w>
irgend wann</w>
hibi tion</w>
drü ckt</w>
fit ness</w>
Phi l</w>
ge teilt</w>
Ch er
kon stru
K ron
ab road</w>
Verantwor tlichen</w>
at ori
perf ec
A Z</w>
d unk
We ber</w>
b las
identi ty</w>
Jos hua</w>
on ships</w>
Nation en</w>
au sh
Car di
Cor n
ben ch</w>
lie fern</w>
5 000</w>
terri ble</w>
ex it</w>
10 ,000</w>
vermei den</w>
2 ,000</w>
Ka is
Gleich zeitig</w>
ri g</w>
p son</w>
18 0</w>
Ein richtungen</w>
F ok
est en</w>
Al tern
b ungs
gr en
decl ine</w>
ad voc
behör den</w>
f alt</w>
def en
erläu tert</w>
tion ing</w>
Get rän
Argent ina</w>
A sk
damali gen</w>
A L</w>
persön lichen</w>
s z
Lö wen</w>
3 000</w>
ha gen</w>
reve als</w>
S underland</w>
tra fen</w>
re t
e uro</w>
lei te</w>
er wi
El f</w>
ch ose</w>
vor stand</w>
m ungen</w>
pla stic</w>
drän gt</w>
pri ze</w>
Plan ung</w>
A mp
h ate</w>
er scheint</w>
k eines
rä u
Ar z
Photos hop</w>
ab led</w>
prof its</w>
br and
mat ure</w>
Je ff</w>
ss ing</w>
Tur k
r aus</w>
Mar tin
ra cing</w>
aufmerk sam</w>
p ing</w>
D ol
appro val</w>
Eben e</w>
zu erst</w>
plan ts</w>
Bau er</w>
at o</w>
ev ol
mil f</w>
an geneh
um fang
Sen ator</w>
Mi dd
P aci
.0 9.
Me yer</w>
Frei tagabend</w>
Aus gabe</w>
reta il</w>
exp lor
Sti ch
teil ten</w>
caus es</w>
S U
w ahl
purch ase</w>
edi tor</w>
Gewerk schaft</w>
mi r
spek ta
al ar
reag iert</w>
Ni ght</w>
enth alten</w>
proper ly</w>
. or
exten ded</w>
d ale</w>
wer ken</w>
g la
fre ute</w>
c os
heal th
Mexik o</w>
fac tors</w>
dent in</w>
con sci
journ alist</w>
May be</w>
serv atives</w>
ten berg</w>
b os
essen tial</w>
Fil me</w>
contro lled</w>
or ten</w>
encour age</w>
La w
sen s</w>
c on</w>
H ub
fei erte</w>
defic it</w>
Ter ry</w>
st ausch</w>
T ag
las ses</w>
gi ft</w>
Franz is
j ump</w>
ma ster</w>
car pet</w>
kan er</w>
ici al</w>
sta ying</w>
Stu dium</w>
199 1</w>
genie ßen</w>
A K
Zeh n
Ger ä
10 ,
al ised</w>
mo m</w>
B enz
mati c</w>
L ook</w>
desper ate</w>
nei ther</w>
hervor ra
p o</w>
ü bt</w>
hon est</w>
masch ine</w>
Ab stand</w>
Gemein schafts
gebäu de</w>
Unternehmen s</w>
Nat o</w>
Bro ad
sanc tions</w>
fun ny</w>
verli ert</w>
r ally</w>
be ating</w>
ver standen</w>
3 50</w>
ausreich end</w>
up set</w>
k ins</w>
l on</w>
Spor ts
Spiel tag</w>
Mal ay
an did
typ es</w>
sh ouldn</w>
re ments</w>
geh andelt</w>
S av
Kom promis
ch osen</w>
mission er</w>
Um feld</w>
ol ders</w>
Ma in
ent u
Mon aco</w>
con dem
C ry
i ten</w>
ad el
every body</w>
ehren am
Ab wehr
ück en</w>
Swi ss</w>
Far be</w>
sho es</w>
dig ungen</w>
Asi an</w>
Fl am
Hil fs
clos ely</w>
Kri tiker</w>
e en</w>
spiel ten</w>
fal se</w>
I hrer</w>
y en</w>
sh ap
dem ands</w>
sa ved</w>
St ein</w>
hi o</w>
är ten</w>
T ennis</w>
sp latz</w>
Thom pson</w>
Ne u</w>
cli ents</w>
wi ld
P el
ter ung</w>
ol i</w>
ul timately</w>
En ergi
städ ter</w>
Cra ig</w>
wechsel n</w>
tit les</w>
Har tz</w>
elec tron
neigh bor
ol ds</w>
volun te
er leich
attemp ts</w>
dür fe</w>
bit te</w>
B ar</w>
break fast</w>
Mig ran
di ch</w>
occ urred</w>
n ord
sti k
boo t</w>
deta il</w>
po the
Bo ard</w>
dopp elt</w>
demo cracy</w>
nat ür
be zeichnete</w>
bek ämp
Sab ine</w>
contri buted</w>
H offen
s berg</w>
exp an
on ia</w>
sug gesti
Ak tivi
erk ran
er al</w>
Köni g
sch a</w>
E ur
Bo ur
atmosph ere</w>
bra chten</w>
oppon ents</w>
el d</w>
fer n
der ly</w>
höh ung</w>
Wilhel m</w>
ma p</w>
world wide</w>
Kinder garten</w>
E is</w>
ti ts</w>
zi ge</w>
kur ze</w>
Nor bert</w>
aggres sive</w>
Wat ch</w>
frei heit</w>
Schwen n
cri mes</w>
gar an
ess ing</w>
kre u
fa x</w>
Nor d</w>
oo m</w>
B ote</w>
en en
de aling</w>
escap e</w>
du s</w>
H ier
Är z
zwi schen
gl am
er nen</w>
lun ch</w>
p ushing</w>
L yn
cle an
ähn liche</w>
up dated</w>
tra ined</w>
institu tions</w>
D ür
cap able</w>
Her bert</w>
Web site</w>
Ges ell
our selves</w>
äuß ert</w>
Sei ten
2 2.
. net</w>
Mon ey</w>
ver mein
F ru
f ought</w>
over seas</w>
überra scht</w>
N äch
O hio</w>
me etings</w>
t ari
Hol z</w>
b v
Bundes republik</w>
ologi sche</w>
m berg</w>
exp osed</w>
Be darf</w>
cap tured</w>
ta il</w>
Me er
adv ance</w>
s bach</w>
W hat
arri val</w>
Erfol gs
G li
g or
not es</w>
fra me</w>
on el</w>
Se ver
sto ßen</w>
Verstän dnis</w>
Jung s</w>
be wegung</w>
bo ots</w>
An schließend</w>
Krank heit</w>
M esse</w>
G ang</w>
Blo ck
Auf stieg</w>
w ol
I B
t .</w>
ver di
Ben edi
I P
ca .</w>
ö sen</w>
Sch nee</w>
lo gi
Atmosph äre</w>
Vie tn
pp t</w>
Haus es</w>
Um welt</w>
N r.</w>
K ön
sei tig</w>
performan ces</w>
A vi
bar ely</w>
Journ al</w>
ner v
N ap
wa ste</w>
stron ger</w>
kün ftigen</w>
Wer be
E T
N FL</w>
Bi er
Bau ern
ologi schen</w>
D jok
fi xed</w>
kon o
Kaff ee</w>
gest alten</w>
c ep
b elt</w>
per forming</w>
prü fung</w>
as ks</w>
er möglichen</w>
mi cro
us on</w>
Ch o
os ex
clas si
vi s
Bo ch
wor ben</w>
er stellt</w>
Hil f
K ub
de posi
höch sten</w>
Schwarz wald</w>
te ars</w>
val ent</w>
t at
Res pekt</w>
A ar
Unter schied</w>
Z o
L ong</w>
di et</w>
l as</w>
q i</w>
Mar ine</w>
s dorf</w>
Cap ital</w>
viel er</w>
ar gue</w>
Auf mer
Ka iser</w>
ter ing</w>
re d
f lash
voraus sichtlich</w>
So ciety</w>
Alex and
lo e</w>
lan ger</w>
Lay er</w>
Fre unden</w>
techni schen</w>
infrastru cture</w>
Mail Online</w>
contra st</w>
wor ker</w>
Z im
Wer bung</w>
Bis lang</w>
Zwei ten</w>
gehör te</w>
äuß erte</w>
suspec ted</w>
grü nen</w>
hit ting</w>
du o</w>
cy cle</w>
Prü fung</w>
ger te</w>
P it
sa ving</w>
z i</w>
bi o</w>
dep lo
ge startet</w>
aim ed</w>
Masch ine</w>
amo un
Bach el
Sch wan
attemp ted</w>
Ab bot
Steph an</w>
Seni oren</w>
Arbeit nehmer</w>
ver teilt</w>
c les</w>
erz ielt</w>
bezieh ungsweise</w>
italien ischen</w>
4 00
Mar s</w>
H und</w>
C os
gh ters</w>
Inter nationalen</w>
signific antly</w>
mi xed</w>
imp lement
1 10</w>
spec ies</w>
cri ti
def end</w>
ch i</w>
enti al</w>
spür en</w>
k ern</w>
Ph oto
Princ ess</w>
Op el</w>
Kenne dy</w>
h ire</w>
än der</w>
Schwi er
Asyl bewer
Ger ichts
Fra ktion
Por sche</w>
cop e</w>
Sum me</w>
Tele graph</w>
Bern hard</w>
i ds</w>
f lei
schei d</w>
IE G
alle l</w>
F ritz</w>
Fra ktions
Chil dren</w>
be müh
atur ing</w>
inv ited</w>
K ru
Stell ung
tot ally</w>
st sein</w>
Luk as</w>
L kw</w>
Car l</w>
pur pose</w>
ell ers</w>
ta ining</w>
bar ung</w>
sc ar
lu ck</w>
ach t
Djok ovic</w>
Ein nahmen</w>
Ren te</w>
O T
pro per</w>
Hal tung</w>
Th ough</w>
ologi es</w>
abgel eh
s ab
wi tz
olo ge</w>
G at
staat lichen</w>
.0 4.
over whel
ge ändert</w>
ro y</w>
targe ted</w>
Dri tt
it i</w>
bar ri
aus sch
ausge setzt</w>
N ahr
D .</w>
li ament
environ mental</w>
th ly</w>
G M
re gre
al tern
D ör
Ele c
kar ten</w>
m and</w>
dür f
un fall</w>
ch em</w>
schaff ung</w>
Clau dia</w>
he els</w>
to s</w>
Sp uren</w>
hop ed</w>
Greg or</w>
ausge sprochen</w>
gli cht</w>
Mot or</w>
kom mission</w>
äuß erst</w>
Sp ur</w>
Be fra
Air lines</w>
ear th</w>
Zu g
Kl ein</w>
Dis ney</w>
Paci fic</w>
ter ia</w>
consequ ences</w>
Swe den</w>
ic op
ad or</w>
An grei
um gesetzt</w>
d ün
beg ins</w>
S et</w>
s hr
Wir tschaf
Vor wurf</w>
Ern ähr
symp toms</w>
Pe ter
sch m
W ort
anc er</w>
Nad al</w>
Reser ve</w>
P age</w>
increas es</w>
b lan
conne cted</w>
Kardashi an</w>
profi tieren</w>
t tern</w>
Flä che</w>
sh aupt
Po p</w>
1 40</w>
eng aged</w>
cor ruption</w>
ick en</w>
hol z</w>
visi ting</w>
Sam sung</w>
stück e</w>
mul ti</w>
meister in</w>
os es</w>
Inter essen
gest anden</w>
en ess</w>
gui de</w>
la id</w>
pro mote</w>
d licher</w>
Regierung schef</w>
D ennis</w>
Netz werk</w>
Swan sea</w>
L icht
Ver däch
Sp ren
or ders</w>
aff air</w>
Hin weis</w>
Ferg uson</w>
a bet
protest ers</w>
inter nal</w>
for schung</w>
o wa</w>
it ation</w>
stä tten</w>
b ond</w>
las sung</w>
f eri
kl eines</w>
a ge
Zenti meter</w>
mö glicht</w>
ben ach
fru str
R oten</w>
ha dn</w>
Sch reiben</w>
c ameras</w>
Ser ge
f low</w>
a vi
p ed</w>
di sor
st um
gh ting</w>
Queens land</w>
W ayne</w>
f liegen</w>
st ü
Schauspiel erin</w>
jah re
punk ten</w>
lig ist</w>
Associ ated</w>
sh ore</w>
th us</w>
identi fy</w>
Mehr ere</w>
se mi
hr en
wel chen</w>
F au
W oods</w>
F T
El f
olog ist</w>
ach tet</w>
g ins</w>
Sci ence</w>
te a</w>
sp ac
South ampton</w>
sto ck
Ch or
ver schw
c as</w>
s sen</w>
män n
Li am</w>
. uk</w>
D unk
el ite</w>
C BS</w>
G H</w>
F äh
L ob
surro unding</w>
Lin d
E cke</w>
h an</w>
human it
emplo yed</w>
coll abor
repres ent</w>
Con tro
er reichte</w>
Berei chen</w>
gebil det</w>
A gen
Th an
G ad
r ar
ink lu
einzel ne</w>
verfü gt</w>
we ge</w>
en heit</w>
ussi ons</w>
ä lt</w>
bish erige</w>
bür ger</w>
temperat ures</w>
plan et</w>
ri ous</w>
A then</w>
po ver
Verbrau ch
on ie</w>
Se e
West er
discus sed</w>
Vor gehen</w>
S endung</w>
S til</w>
.0 5.
che ap</w>
Neu bau</w>
veter an</w>
fis cal</w>
appear ances</w>
ga ined</w>
drü cken</w>
gra fi
eb all</w>
appoin ted</w>
Protest e</w>
fol gten</w>
geg nung</w>
GO P</w>
Konsequ enzen</w>
em ble
perfec tly</w>
prosp ect</w>
ad ju
ö st
T rä
Finan zierung</w>
Erwar tungen</w>
lä dt</w>
Autob ahn</w>
Un i</w>
emp ha
Kanz ler
versu chte</w>
g .</w>
ro ads</w>
Cardi ff</w>
w rites</w>
An wohner</w>
amp les</w>
gh an</w>
Krä fte</w>
U E
eigen es</w>
Zei traum</w>
Ju dge</w>
ha i</w>
Zu hör
ri can
In nov
Schla f
un usual</w>
loh n</w>
so unds</w>
sch i</w>
fiel en</w>
For schung</w>
grap hic</w>
n un
par king</w>
musi cal</w>
n äh
sh ausen</w>
analy sts</w>
Inform ations
dr in</w>
ru ft</w>
vir tu
Ta i
T ier</w>
Gre ek</w>
Ab u</w>
diag n
fo unded</w>
ori a</w>
di cht</w>
Die sel</w>
le tt</w>
Cor por
and o</w>
el sewhere</w>
disc ussion</w>
Aff äre</w>
kno wing</w>
ver wies</w>
Ab wehr</w>
ve get
Land gericht</w>
v ements</w>
Ver pflich
Universi tä
Indi en</w>
Stra ft
pri ority</w>
clos ing</w>
schwi er
Rich t
Kredi t
Ed ward</w>
F an</w>
c at</w>
att acking</w>
Pro duc
ver fassungs
Ph ysi
K ern</w>
Cre dit</w>
bra ch</w>
S ven</w>
w age</w>
ul ate</w>
Po sten</w>
Pro gn
con nec
b ags</w>
wach e</w>
electri c</w>
spä ten</w>
höch ste</w>
s k</w>
J ury</w>
der zei
auf nahme</w>
Ter ror</w>
Ad vent
divor ce</w>
D ame</w>
swi tch</w>
dur e</w>
Sch ülern</w>
.0 1.
verabschie det</w>
Bürger n</w>
S O
ge sichert</w>
Ab schied</w>
s ac
Gö tt
follo ws</w>
out come</w>
en ger</w>
Dro h
län g
let ters</w>
Be schluss</w>
U ber</w>
Ru f</w>
Hit ler</w>
chri st
Bezieh ung</w>
Pri x</w>
Kin o</w>
Jahrhunder ts</w>
des wegen</w>
D im
d onn
Ch ap
k ings</w>
en cing</w>
bu st</w>
er geben</w>
hot els</w>
Mis sion</w>
ri gi
Europ am
Ab kommen</w>
S m
letz ter</w>
Presse konferenz</w>
sad or</w>
mi erte</w>
en semble</w>
U PI</w>
schick en</w>
grei f
Cel tic</w>
kl ini
def ensive</w>
bele gt</w>
vor an</w>
e sch
fl üch
w ü
versch är
en berg</w>
diffic ul
üs sel</w>
Aus gaben</w>
Squ are</w>
Inter ne
K ong</w>
kom pli
SP IEG
McC ain</w>
gef ahr</w>
ra tions</w>
Abgeord nete</w>
.0 2.
Lo gi
expla ins</w>
p es</w>
ein stim
n ab
Pro p
erfol gt</w>
betri eb
ä um</w>
19 45</w>
einzi gen</w>
W ik
SPIEG EL</w>
geb lich</w>
in stance</w>
ome ter</w>
12 ,
er möglicht</w>
Oper ation</w>
Man che</w>
A M</w>
be stand</w>
Schütz en
Vol ker</w>
Hou ston</w>
ri son</w>
wh i
do kum
swi g</w>
Fok us</w>
lin e
Ros berg</w>
tr e</w>
be half</w>
Ru dol
au x</w>
Aufmer ksamkeit</w>
Über wach
rest aurants</w>
M ut</w>
st op
för dern</w>
St ör
Ma i
bu yers</w>
r ote</w>
ot er</w>
consu lt
Dau er
ung lück
expec ting</w>
bi l</w>
sch einen</w>
schaff te</w>
lo vely</w>
Hum an</w>
D C</w>
Di ag
E del
Re alität</w>
har m</w>
Prot est</w>
o be
thre ats</w>
p reis
Kommun al
Er z
k assen</w>
Australi en</w>
Sch lä
So w
ek om</w>
men de</w>
emp ty</w>
mo tivi
schl üsse</w>
Tru st</w>
B las
wo che</w>
st ed
Lan ge</w>
Ver lu
sie ger</w>
h ielten</w>
disappoin ted</w>
Meister schaft</w>
Br enn
lin ien</w>
k tiv
at ure</w>
.. ..</w>
Tat ort</w>
lich ung</w>
je ans</w>
1 60</w>
pre v
gi ge</w>
ple ased</w>
ent schied</w>
gr enzen</w>
bad ly</w>
mitt ing</w>
Con c
Kas sen
Cel eb
leist ungs
var iety</w>
Vi si
swi t
Infrastru ktur</w>
Ger ü
forec ast</w>
Lei den
arti sts</w>
t oren</w>
ein satz</w>
l ls</w>
Kl age</w>
F und
chine sischen</w>
gu est</w>
Sch aff
schlossen en</w>
j ener</w>
sa ison</w>
geb ür
sp anischen</w>
t oler
u kra
endgül tig</w>
Belgi um</w>
ed a</w>
ad y</w>
zü glich</w>
be ar</w>
Pri ce</w>
flä chen</w>
Di plom
Abbot t</w>
Ungar n</w>
a is</w>
di ct
Ne um
än en</w>
Moh ammed</w>
kommen de</w>
St abili
wei ßen</w>
Ach tel
r t
di r</w>
Entwick lungs
wei b
num erous</w>
Sen .</w>
schwar zen</w>
sen ator</w>
Tha il
vor läu
bit ter</w>
wer ed</w>
sor ge</w>
lan des
staat liche</w>
mp s</w>
schwer er</w>
Justi z</w>
Be sitzer</w>
ein ig</w>
höh eren</w>
bo w</w>
N ick
ab sen
rup t</w>
l ü
com edy</w>
inv est</w>
Tel ekom</w>
K au
Rott weil</w>
ha b</w>
erläu terte</w>
Sp on
ac tual</w>
sicher lich</w>
r ape</w>
sum mit</w>
E he</w>
we b</w>
ep er</w>
Mob il
trav elling</w>
C ir
p end
ich tet</w>
sp ritz
z elt</w>
.0 6.
str ong
unter sucht</w>
Guardi an</w>
mod ation</w>
reach ing</w>
e ase</w>
ef in</w>
M en</w>
Bi er</w>
Land tag</w>
thro wn</w>
Naz i</w>
Chri sti
Exper te</w>
Ein heit</w>
Mun ich</w>
La ke</w>
Sto ck</w>
rie be</w>
e th</w>
N SA</w>
vers al</w>
Erfol ge</w>
ar tige</w>
teu er</w>
Per ry</w>
General sekretär</w>
ver folgt</w>
Pots dam</w>
Auf klärung</w>
sp a
ho sts</w>
.0 7.
D allas</w>
bür o</w>
D auer</w>
re di
journ alists</w>
Kl eine</w>
visi ons</w>
Vene zu
Ara b</w>
persön liche</w>
auf gebaut</w>
z ona</w>
G M</w>
wom öglich</w>
ta ste</w>
verhin dert</w>
E mer
C ent</w>
at ta
&apos; He</w>
Ge t</w>
direc ted</w>
le m</w>
Per sön
D E</w>
Ph illi
accep table</w>
bil d
con ten
mor al</w>
H amp
sü d
wün schen</w>
ursprün glich</w>
Dad urch</w>
sprü che</w>
certain ty</w>
Ö VP</w>
Mat ch</w>
ir ts</w>
ß ig</w>
führ ungen</w>
l ung
swi mming</w>
Wh ich</w>
or f</w>
per n</w>
per su
W F</w>
finanz ielle</w>
H ong</w>
di ver
zwei fel
Be griff</w>
or a</w>
per cent
A mar
st unde</w>
maxim al</w>
Kilome tern</w>
türk ische</w>
Unternehmen s
F alle</w>
H av
T ote</w>
un ge</w>
ent spricht</w>
T atsächlich</w>
V inc
reali se</w>
ent ry</w>
h all</w>
ter min
Se el
hö he</w>
g ur
am o</w>
ru m
com mission</w>
fre unde</w>
her z
new ly</w>
Stim m
Gaz a</w>
typ ically</w>
Er satz
f lat
Sch mu
erk ennung</w>
compla ints</w>
erfü llen</w>
wel fare</w>
geb nis</w>
strei t</w>
Auf tri
p are</w>
bahn hof</w>
prakti sch</w>
Sch ritte</w>
för derung</w>
aus gerechnet</w>
T ests</w>
Regel ung</w>
Schi ff
ri c</w>
fun ction</w>
Schwe ster</w>
Medi cal</w>
fa ke</w>
agen da</w>
par ent</w>
com bination</w>
correc t</w>
Be zug</w>
Zu gleich</w>
Se an</w>
ste ch
gef lo
me th
l aus</w>
H S
sho cked</w>
m ood</w>
10 0,000</w>
Hot el
deter mine</w>
I G</w>
por tion</w>
Ham mond</w>
adverti sing</w>
S ophie</w>
in ter</w>
ten e</w>
brü ck</w>
B ob
ori ous</w>
Parti en</w>
krä ften</w>
Tran spar
N eil</w>
n n
Re port
in able</w>
oper ate</w>
rü cken</w>
E va</w>
la ch</w>
Kur t</w>
ol o</w>
gl as</w>
p ages</w>
.com .</w>
San chez</w>
Ver bot</w>
b üh
Lu is</w>
Touri smus</w>
moder nen</w>
shar p</w>
Zi vil
repres ents</w>
Mie ter</w>
viel es</w>
Wil len</w>
serv ativen</w>
ang aben</w>
cre am</w>
ant es</w>
k la
än ge</w>
Schi ff</w>
Cry stal</w>
T eu
threat ening</w>
be frei
Lu ke</w>
h eben</w>
L är
gel aufen</w>
ger ed</w>
Volks wagen</w>
Be gegnung</w>
kün ftige</w>
fil ming</w>
investig ating</w>
Ar th
la ce</w>
ger ungen</w>
For um</w>
le e</w>
ge wiesen</w>
reag ieren</w>
Pol and</w>
Aut oren</w>
ash ing</w>
e chte</w>
Ju den</w>
ho f
an treten</w>
eri es</w>
dra ft</w>
gestal tet</w>
unmittel bar</w>
Far ben</w>
S ad
Su ch</w>
C E</w>
brun ette</w>
Andro id</w>
A B
in no
i us</w>
gel ände</w>
wech s
Col um
so fern</w>
Tsch ech
ver geben</w>
com ed</w>
stur z</w>
Ent wurf</w>
in ev
origin ally</w>
incredi bly</w>
Karls ruhe</w>
Funk tion</w>
e be</w>
et ary</w>
re forms</w>
f lag</w>
ill ness</w>
tr o</w>
Ver sorgung</w>
Heim spiel</w>
si onal</w>
bu ch
unterschie dliche</w>
verfü g
ent steht</w>
Ger ät</w>
St en
Schä uble</w>
Car los</w>
Schul den</w>
eu p</w>
Bundestags wahl</w>
aller y</w>
e wi
lei chter</w>
Bur g
f es
Lon don
le v
wa ves</w>
ger ing
visi ts</w>
ga u</w>
dedi cated</w>
Ham as</w>
v est
Mat eri
Ver län
re l</w>
fac ts</w>
brei te</w>
equ al</w>
Har ris</w>
impres sed</w>
si eb
c ents</w>
de cent</w>
ha ir
Wor k
Sa al</w>
dra w
abet es</w>
To wn</w>
t m
benö tigt</w>
C C
we ak</w>
vor n</w>
teen ager</w>
geschei tert</w>
inter pre
durch geführt</w>
fin ds</w>
hal ben</w>
phil os
Ägyp ten</w>
enor m
territ ory</w>
besser en</w>
liament ary</w>
Aus schuss</w>
ne ben
Betei ligten</w>
W ör
Vor schläge</w>
no body</w>
Naz is</w>
Ver öffent
opp osed</w>
Ma sters</w>
beobach tet</w>
wel comed</w>
investi ert</w>
t es
Gymnasi um</w>
Ran de</w>
con fron
Ta ke</w>
pre pare</w>
com fort</w>
st abili
qu it
W är
Nor th
su gar</w>
E duc
brut al</w>
Bün dnis</w>
Lö sungen</w>
F ood</w>
wen det</w>
.0 8.
Fi ve</w>
may or</w>
h l
anon y
questi oned</w>
Pfle ge</w>
Hän dler</w>
Matthe w</w>
Link spartei</w>
analy st</w>
gre y</w>
wes entlich</w>
B ah
führ erin</w>
conc ert</w>
Stra ß
besch rän
bil der</w>
Angeklag te</w>
Nik ol
out standing</w>
woh nern</w>
W om
rec alled</w>
R ic
Ari zona</w>
c olo
n ative</w>
R ub
conclu ded</w>
co m</w>
r ings</w>
men tioned</w>
roman ce</w>
thre w</w>
ent ration</w>
3 4
dis missed</w>
Freu den
be setzt</w>
propos als</w>
enfor cement</w>
Ri ght</w>
Sch ätz
s am
fi ghter</w>
zerstör t</w>
ball s</w>
Fried rich
th ir
Mik ro
met res</w>
Bör sen
Bra zi
schi en</w>
amate ur</w>
men d
de z</w>
Pf licht</w>
di verse</w>
St att
hin ein</w>
do zen</w>
ger issen</w>
feh lte</w>
br ush</w>
fra gte</w>
J ob
spekta kul
le gend</w>
R .</w>
dru ckt</w>
mo vies</w>
Gün ter</w>
Ad minist
österreich ischen</w>
Z ul
d un
al tet</w>
ör t</w>
N BC</w>
kümm ern</w>
gelei tet</w>
pri se</w>
ß te</w>
bo ar
confir m</w>
Angeklag ten</w>
ani scher</w>
schätz t</w>
Ju vent
p up
Park platz</w>
N Y
W ladimir</w>
über nahm</w>
is a</w>
ger ü
Ab stie
b or</w>
ü ben</w>
am ond</w>
li c</w>
bewe gt</w>
An klage</w>
Sch los
me anwhile</w>
es sive</w>
Aus bildungs
de ckt</w>
Joh ann</w>
speci fic
vorsitz ender</w>
ju di
D i</w>
Kon tra
ra tive</w>
t licher</w>
Über nahme</w>
ro b
E astern</w>
Gemein sam</w>
oc cup
Turk ish</w>
re cip
Tat sache</w>
Bu ck
mi le</w>
Pe king</w>
betri fft</w>
fe aturing</w>
gran ted</w>
Medi kam
Aus sicht</w>
re ll</w>
En d</w>
Wei ß
dra wing</w>
comp ensation</w>
Holl and</w>
ter er</w>
thou ghts</w>
lea ther</w>
I bra
Dire ktor</w>
T S</w>
L loy
The ater
Min i</w>
N ation</w>
hal be</w>
st ö
Eb ola</w>
Ri ghts</w>
Alkoh ol</w>
cop yright</w>
Mar cus</w>
C abinet</w>
Arbeitsp lätze</w>
am as</w>
tz e</w>
dan k
eindeu tig</w>
gesch ätz
viel fäl
L em
mel dete</w>
e mi
B lei
angeb ot</w>
ch ess</w>
hol es</w>
al ismus</w>
spek tive</w>
advi ser</w>
smi le</w>
erinn erte</w>
kün fte</w>
Men sch
Jam a
sc ape</w>
Konz ern
los er</w>
un employment</w>
al z</w>
e es</w>
Pier re</w>
Info s</w>
fli x</w>
Juvent us</w>
B B
Stein meier</w>
gew ün
Ge winner</w>
regar ding</w>
requi res</w>
h ell</w>
out fit</w>
vorge worfen</w>
twe et</w>
be strei
s äch
Orig in
Währ ungs
A R</w>
Gar cia</w>
sch efs</w>
Kan ada</w>
techni sche</w>
I I.</w>
S C
hel icop
percent age</w>
f euer
bundes weit</w>
disc los
c i</w>
ig te</w>
wei gh
celeb rated</w>
hi gen</w>
ein gerichtet</w>
dr an</w>
Not en
Ver trags
ti er
app lied</w>
Ch ile</w>
wer ben</w>
Überra schung</w>
il ers</w>
han den</w>
tou ch
any where</w>
Ex ist
Ant worten</w>
Migran ten</w>
nor mal
am bul
Nic o</w>
or n</w>
Blu es</w>
eng ine</w>
W ün
quar ter
sing ing</w>
la dy</w>
tr um</w>
Ver trau
stre t
man chen</w>
facili ty</w>
Hän den</w>
sol utions</w>
adop ted</w>
ch ens</w>
Hoch schule</w>
ju ri
spie gel</w>
f iger</w>
demokra tischen</w>
m ack</w>
le er</w>
kri tisch</w>
lo cks</w>
Ro b</w>
s inn</w>
drück lich</w>
man aging</w>
in spec
ti ally</w>
gef ör
Un der
au to</w>
aff airs</w>
Goo d
main ly</w>
St am
tre es</w>
charac ter
grün e</w>
cli p</w>
D L
depart ure</w>
samm eln</w>
fa il</w>
materi als</w>
Viertel finale</w>
da ch
soli d</w>
pri vi
Analy se</w>
par ks</w>
hoh er</w>
S lam</w>
sychi atri
gel ingt</w>
Anzei ger</w>
Konkurren ten</w>
Deut scher</w>
z ard</w>
regi stered</w>
Clu bs</w>
com preh
Z it
mi grants</w>
Sp enden</w>
su bur
me at</w>
B oot</w>
abgeleh nt</w>
st ation
am tes</w>
Frei willi
gef asst</w>
Ro y</w>
Bör se</w>
Olymp ischen</w>
Ask ed</w>
3 6
Bru ce</w>
remark able</w>
RT L</w>
Gesprä chen</w>
Gr ö
prepar ing</w>
Every one</w>
Aus druck</w>
j ähri
car bon</w>
I V
notic ed</w>
kn ü
stri king</w>
inklu sive</w>
inn ings</w>
activi sts</w>
in ers</w>
B lä
Palest inian</w>
Vil lingen</w>
pres cri
Er weiter
communic ations</w>
x i</w>
suggest ing</w>
d ä
cal m</w>
da chte</w>
R äume</w>
e astern</w>
Bek ann
Thür ingen</w>
Vo gel
pres er
enti ert</w>
l us
Rek ord</w>
Statt dessen</w>
M üh
Ab schie
Re si
i d
co ck</w>
mo on</w>
Ca stro</w>
N am
Net flix</w>
Mann es</w>
keep s</w>
vier tel</w>
Simp son</w>
a .m.</w>
depres sion</w>
strong ly</w>
Zin sen</w>
Ein tritt</w>
gegen wär
F abri
Kab in
frei lich</w>
ni en</w>
v ens</w>
in ations</w>
go s</w>
t ts</w>
Spr ung</w>
erzäh len</w>
sal ary</w>
voll ständig</w>
t reiben</w>
M ani
ori en</w>
TH E</w>
An leger</w>
law suit</w>
j an</w>
yp e</w>
genann ten</w>
A ber
min us</w>
Hand ball</w>
pe ac
Bu ff
ra cy</w>
res ort</w>
gewi cht</w>
L as
exc ept</w>
fair ly</w>
Att ent
Ty p</w>
ga ins</w>
Produ kt</w>
broad cast</w>
Du ke</w>
pos es</w>
Fol lowing</w>
Vi ze</w>
In genie
Ab ent
Phili pp
kl ein</w>
p ä
K ell
high li
c af
Bo y
F all
lei ten</w>
for mal</w>
Tran sport</w>
li ked</w>
ch ten
Auf nahme</w>
äl tere</w>
0 8
k ammer</w>
su l
P ort</w>
Z oll
G ute</w>
sth af
erforder lich</w>
empf eh
ig er
entru ms</w>
ie h
break s</w>
E ach</w>
Sk andal</w>
pro of</w>
in ne</w>
T O
zeu g
Stra fe</w>
E C</w>
consu l
at titude</w>
Z ah
fem in
del ines</w>
diag no
Ira qi</w>
B and
L O
la in</w>
ch ter
selbst verständlich</w>
ac tors</w>
W emble
Lie bl
trit ts
k tive</w>
bo xing</w>
b les</w>
in formed</w>
requ ests</w>
Pla y
P enn
convinc ed</w>
Gesch le
fun ded</w>
tu be</w>
Sour ce</w>
v olle
wi tz</w>
I O
gen es</w>
fe ed</w>
gol den</w>
verkehr s
ar sch</w>
ma k
ra p</w>
Sam stagabend</w>
dau ghters</w>
F lo
pregn ancy</w>
Stär ke</w>
Magaz in</w>
fang s</w>
p our</w>
dist inc
ma ß</w>
cont acted</w>
scor es</w>
. A.</w>
unabhängi g</w>
al u
sta ats
F eu
sett lement</w>
ti st</w>
e z
Ein zug</w>
mod ell</w>
ebo dy</w>
XX X</w>
Steu er</w>
schw äch
Cri sti
up coming</w>
Andr é</w>
Sch re
fra ktion</w>
ra ti
sätz en</w>
far m</w>
Dub ai</w>
repor ter</w>
NS W</w>
et abli
Ak ade
ste ten</w>
Vor fall</w>
En th
th aus</w>
x er</w>
M ord</w>
S tern</w>
Angrei fer</w>
SP Ö</w>
Gün ther</w>
Erd be
Plat z
grei ft</w>
fü gte</w>
Rei sen</w>
li eren</w>
öff nen</w>
are z</w>
ti an</w>
Sam stag
rech tzei
o u</w>
wei s
R ing</w>
Klu b</w>
Verlän gerung</w>
refuge es</w>
tri ck</w>
H at</w>
verdien en</w>
chemi cal</w>
Mar x</w>
Sol ar
Minist ry</w>
ext ent</w>
G E
Stand ard
pil ot</w>
vi su
Ju an</w>
Ch or</w>
be ge
Ex plo
G h
Mich el</w>
equ ally</w>
diagn osed</w>
fer tigt</w>
r ental</w>
Bl ut</w>
ali zed</w>
deli ber
Rech nung</w>
An stieg</w>
ak tion</w>
Besu chern</w>
wel ches</w>
b our</w>
a he</w>
v ater</w>
gra ben</w>
Schul d</w>
Groß teil</w>
champi onship</w>
G T
Seri es</w>
fest yle</w>
destro yed</w>
Bl ü
Commun ity</w>
fa ster</w>
Aar on</w>
Lebens mittel
us st</w>
l ap
ent weder</w>
be sie
fir ma</w>
rü ckt</w>
Phil os
ym ar</w>
Spiel ern</w>
exc ep
Schle swig</w>
Zeh n</w>
ei ch
De velop
veranstal tung</w>
to x
Mo del</w>
E hem
n erin</w>
stam men</w>
geb oten</w>
miss ar</w>
arri ve</w>
Ein la
L oo
applic ations</w>
op hi
ch ell</w>
pas ste</w>
ak u
absen ce</w>
bron n</w>
contra cts</w>
läss lich</w>
stri ch</w>
äuß ern</w>
Li ed</w>
Al ab
do zens</w>
Clar ke</w>
i con
adv anced</w>
G lä
ra cial</w>
smo king</w>
Risi ken</w>
de men
ri sk
identi fi
Mon tagabend</w>
K iel</w>
nom ine
Ries en
Pflan zen</w>
ne tz</w>
Ar m
suff er</w>
po sts</w>
Ab ra
mi eren</w>
Cro wn</w>
Prin zip</w>
Syst ems</w>
am bas
Hol lande</w>
bath room</w>
Sto ke</w>
awar ded</w>
S car
op eri
C ul
sch aut</w>
Arn old</w>
reg ard</w>
Arbei ter
collap se</w>
dy na
Dan iel
wichtig ste</w>
cre ative</w>
Sig nal</w>
st ir
e v</w>
St al
spann t</w>
spä testens</w>
qu asi</w>
cor respon
go ver
Leu ten</w>
Sch ar
Ver brechen</w>
Stad trat</w>
ad ult</w>
Wemble y</w>
CO 2</w>
seh old</w>
rech tlichen</w>
ar ina</w>
be schreibt</w>
E .</w>
Ne ymar</w>
no vel</w>
ru hig</w>
be st
Tor hüter</w>
Atlan ta</w>
tsei te</w>
lin ing</w>
Strei t
Rus sell</w>
b ör
wor n</w>
absol ut</w>
her unter
en ly</w>
on e
N .
gra fie</w>
Pe p</w>
Kon tin
T hr
inten se</w>
Untersuch ungen</w>
über tragen</w>
pain ting</w>
equ ity</w>
sich erte</w>
b ars</w>
H ür
Cristi ano</w>
Gremi um</w>
af raid</w>
ru mp
Sonn tag
le ton</w>
foli o</w>
on aire</w>
Tor wart</w>
Zäh ler</w>
automati sch</w>
Ehe frau</w>
Sit z</w>
ett a</w>
u cht</w>
is ol
Mac ron</w>
th u
part nership</w>
P ear
Ker ry</w>
Wich tig</w>
Plat tform</w>
Sou thern</w>
hon our</w>
Wi th
fil es</w>
Auf grund</w>
Pf licht
Land wirtschaft</w>
Com mon
th ilfe</w>
su chten</w>
s op
deli ghted</w>
Co oper</w>
are th</w>
Gir l</w>
An lagen</w>
Thail and</w>
di eren</w>
att ack
co at</w>
Vor teile</w>
Be amte</w>
L ein
gek auft</w>
p it</w>
t ent
Sport ler</w>
N om
v illa</w>
Stellung nahme</w>
A spe
appe aring</w>
di en</w>
del n</w>
zieh ung</w>
ö die</w>
deut schland</w>
Off ic
Br ut
Nar ren
Neu en</w>
konz ept</w>
ri ding</w>
con stru
Chef in</w>
be er</w>
Ara bia</w>
ho b</w>
Ru gby</w>
Inde pen
Sozial demokraten</w>
D J</w>
bot tle</w>
Wies baden</w>
grap her</w>
man ner</w>
wi llig</w>
eff izi
p ädago
Ser gio</w>
ro les</w>
lo aded</w>
go wn</w>
rec ession</w>
ra ces</w>
Ho ward</w>
E st
ab sur
mat ching</w>
Po kal
b lin
Höch st
We ek</w>
alo gue</w>
dre hen</w>
s äm
Edi ting</w>
mar i
person ality</w>
Son y</w>
W H
lo west</w>
qu it</w>
Sen at</w>
lo cked</w>
Di alog</w>
fu hren</w>
Ober bürgermeister</w>
ap ologi
inf o</w>
Verein igten</w>
e h</w>
UE FA</w>
betei ligen</w>
erh ielten</w>
yo ung
wit ness</w>
famili en
Kun den
hän dler</w>
kosten los</w>
fun k</w>
prosecut ors</w>
Ab teilung</w>
air o</w>
bri cht</w>
ver spricht</w>
b acking</w>
Unter nehmer</w>
be tr
finanzi ellen</w>
p fe</w>
Da von</w>
histori sche</w>
vi eren</w>
or able</w>
relation ships</w>
sag ten</w>
Secon d</w>
bi c</w>
Wir d</w>
men den</w>
W ood
Nig eria</w>
l ern
Con ference</w>
mot or</w>
ur a</w>
Brun o</w>
Maj or</w>
pack ed</w>
iz za</w>
Sp urs</w>
mali ge</w>
Col or
sensi tive</w>
Je wish</w>
refer red</w>
f acher</w>
gelie fert</w>
wechsel te</w>
er wäh
spar tei
Afgh an</w>
success fully</w>
i de</w>
le hr
finan ziert</w>
Speci al</w>
sche dule</w>
Mob ile</w>
Grün dung</w>
k us
rei chten</w>
B eb
ar es</w>
An erkennung</w>
p al</w>
ange kommen</w>
sc r
In halt</w>
Krimin al
in ch</w>
an walt</w>
Dien stagabend</w>
beein fl
Ste ffen</w>
massi v</w>
K lassen</w>
ei l
S tern
gy m</w>
invest ments</w>
pf el
W ood</w>
guaran tee</w>
Ox ford</w>
H IV</w>
zwei t
at orin</w>
Rei ch</w>
dro ve</w>
Da im
sche .de</w>
Ö l</w>
Verletz ung</w>
gele gen</w>
12 5</w>
B y
el derly</w>
Tor onto</w>
Auf steiger</w>
sk ep
gä ste</w>
Pr inz</w>
Dut ch</w>
ste el</w>
Democ rat</w>
extre mi
Arth ur</w>
Masch inen</w>
kl aren</w>
V ati
entscheiden den</w>
ven th</w>
heb ung</w>
Franc is</w>
custo dy</w>
sh aus</w>
we tter</w>
ri k</w>
G am
Prov inz</w>
Mod elle</w>
B e</w>
dien stes</w>
re volution
Alli anz</w>
Mönch eng
Än derungen</w>
C amp</w>
ter ten</w>
cast ing</w>
Ste fan
re marks</w>
si zed</w>
Mul ti
sa hen</w>
fe der
T M
P on
Ta geb
Schl üssel
gew inn</w>
May or</w>
kap elle</w>
temperat ure</w>
Mitglied staaten</w>
b old</w>
h ause</w>
wer tet</w>
oni sten</w>
gren zt</w>
Belgi en</w>
r s</w>
hosp itals</w>
Adel aide</w>
Tra ff
I van
S T</w>
W E</w>
ck len
intensi v</w>
p orts</w>
milit ants</w>
rü stung</w>
j äger</w>
i si
co very</w>
sicher er</w>
Str and</w>
an teil</w>
i P
W ars</w>
ven ess</w>
Son gs</w>
20 ,000</w>
Erwachsen e</w>
promis es</w>
radi k
erheb lich</w>
Kil o
ti l
lo ose</w>
un vei
NA SA</w>
wer ks</w>
reas onable</w>
bli cken</w>
Angehöri gen</w>
B eck</w>
chan nel</w>
pres enter</w>
Proble men</w>
Mittwoch abend</w>
Ein kommen</w>
osex u
lin ke</w>
Dar in</w>
s ne
Vari ante</w>
bi schen</w>
en ne</w>
u tili
erk enn
ra ft</w>
Sie ben</w>
man ns</w>
auf nehmen</w>
ott i</w>
Beru f
Adres se</w>
geprä gt</w>
La w</w>
enter tainment</w>
min i</w>
Ro dri
ra sch</w>
P har
Land rat</w>
ing ers</w>
prov ince</w>
taus ende</w>
execu tives</w>
ord entlich</w>
h ome
regu lations</w>
En gel
fre ue</w>
om et
bu tion</w>
at en
schle chte</w>
bau ten</w>
H ull</w>
H .</w>
min or</w>
sha dow</w>
kolle gen</w>
B ook</w>
198 8</w>
oppon ent</w>
sel ected</w>
verhand lungen</w>
Staff el</w>
H L</w>
all zu</w>
T XXX</w>
Bo wl</w>
star tete</w>
beobach ten</w>
Rei hen</w>
real ised</w>
deta iled</w>
ri ver</w>
e ed</w>
Sch ra
moun tain</w>
J on</w>
Kommunik ation</w>
vor bei
3 ,000</w>
sent enced</w>
comb at</w>
steu ern</w>
on so</w>
Hoffen heim</w>
d um
ari en</w>
Brazi lian</w>
B iel
stellvertre tende</w>
drin ks</w>
H ell
Qu er
Schä fer</w>
admi ts</w>
Kol um
p om
W ri
cli mb
sto cks</w>
mil k</w>
konz ert</w>
Sch mid</w>
mo thers</w>
nach zu
Amts zeit</w>
T en</w>
bean tra
W ul
K üh
mer ely</w>
stär ken</w>
blo g</w>
Voraus setzungen</w>
jo ke</w>
im mun
Di kt
ei gh
tig keiten</w>
k tes</w>
Atlan tic</w>
Le a
disc rimin
we al
wa ffen</w>
D sch
b lä
aus gelöst</w>
en gagement</w>
An y</w>
attra ctive</w>
gather ed</w>
ri di
L ah
ro lled</w>
F P
Spe zi
norm ally</w>
Ste wart</w>
Gewerk schaften</w>
fac tory</w>
te sti
3 D</w>
Ver fassung</w>
beschä digt</w>
Common wealth</w>
feh l</w>
elec tor
Jahrzeh nte</w>
ö k
3 7
Mc Il
Dokum ent</w>
wün scht</w>
z we
griech ischen</w>
Schick sal</w>
dam aged</w>
en su
Sp err
Gel b</w>
Lie b
de cor
ein igt</w>
sinn voll</w>
ü t</w>
visi ble</w>
Eli sa
bay erischen</w>
prot ected</w>
Bas ketball</w>
i sches</w>
st rom</w>
Arbei ter</w>
Sow jet
Vi z
et y</w>
in form
h ung
o urs</w>
he a
C z
zum al</w>
appar ent</w>
An ton</w>
cra zy</w>
be geg
lei tet</w>
alisi eren</w>
politi scher</w>
Up dated</w>
P ent
fän ger</w>
Hol stein</w>
sat elli
su its</w>
spec ulation</w>
gef ä
H aut</w>
pe ak</w>
consi stent</w>
eph one</w>
wa cht</w>
Wei ßen</w>
brau che</w>
P ad
schn elle</w>
K ita</w>
Be gründung</w>
verbess ert</w>
schir m</w>
M ä
Se chs</w>
ri ck</w>
ster y</w>
P ast
wei chen</w>
do l</w>
Eigent ümer</w>
communic ation</w>
lich erweise</w>
less ly</w>
b ull</w>
Sch ab
erfolg reichen</w>
I C</w>
bi zar
198 0</w>
st range</w>
las se</w>
moder ne</w>
gar ten
con st
Rol f</w>
ver trau
um ge
O pf
Ban ken
lan dete</w>
sh ine</w>
experi ences</w>
col or</w>
cour ts</w>
k reisen</w>
ati schen</w>
rä f
Amer ika</w>
Kom mand
Tot al</w>
co ordin
Det ro
Fab ian</w>
SN P</w>
in her
Brie f
kick ed</w>
x on</w>
ex hibition</w>
Posi tionen</w>
Fran ken</w>
Du o</w>
t olle</w>
p au
B latt</w>
ens wert</w>
sk a</w>
spr ingen</w>
ist er</w>
Vor bild</w>
an bieten</w>
air line</w>
disp ute</w>
Jan e</w>
publi cation</w>
fran ch
15 00</w>
Ab it
v acc
Wirtschaf t
cir cu
k id</w>
Kreu z</w>
Herausforder ungen</w>
requi rements</w>
Klin ik
fe time</w>
ag an</w>
b und</w>
reve aling</w>
ni a</w>
Ti pps</w>
bro thers</w>
Mit ter
Bü ro
uli ert</w>
C IA</w>
men ten</w>
wo unded</w>
phi a</w>
forder ten</w>
Ei sho
Compu ter
rech tlich</w>
Tal ent</w>
Fahr bahn</w>
Com eback</w>
wander ung</w>
c able</w>
st eri
tra ge</w>
europ ä
x e</w>
R ote</w>
führ enden</w>
w alls</w>
leb ten</w>
S S</w>
Man hat
erzäh lte</w>
vor handen</w>
lo cker</w>
any way</w>
Auseinander setzung</w>
Ho ene
G la
bedro ht</w>
t less</w>
er an</w>
King dom</w>
Welt krieg</w>
refle ct</w>
missi le</w>
H eu
al ie</w>
tou gh
Sch e
Auf bau</w>
pover ty</w>
G ie
Gen au</w>
d dy</w>
tran sition</w>
Instit u
Hoene ß</w>
Pro ject</w>
Sp ace</w>
rout ine</w>
kt ar</w>
F lan
fiel ds</w>
sk on
J ung</w>
Ter min
equi valent</w>
assi stance</w>
Nord korea</w>
gestal tung</w>
har ass
A dam
zz le</w>
Zus atz
Educ ation</w>
W ann</w>
u pper</w>
pen sions</w>
Darm stadt</w>
Kateg orie</w>
repres ented</w>
rechtzei tig</w>
regel mäß
ang hai</w>
sett led</w>
Komment ar</w>
Welt cup</w>
Ber ech
Wissen schaft</w>
198 6</w>
K A</w>
B le
betre ut</w>
promp ted</w>
teil nehmen</w>
Organis ationen</w>
Phil adel
Herr n</w>
Schwenn ingen</w>
Col om
par l
refer ence</w>
lo ves</w>
t one</w>
B E
dem anding</w>
ge prüft</w>
liber al</w>
b ation</w>
ti s
schrau ber</w>
M ut
techni k</w>
zei tlich</w>
zi tiert</w>
Bar cla
tro ck
Bet reiber</w>
hi dden</w>
ge fühl</w>
o mic</w>
genü gend</w>
Wil d</w>
insi sts</w>
predi cted</w>
2, 5</w>
Har ald</w>
def ending</w>
Le wand
compla int</w>
Kandid at</w>
wenig stens</w>
B ach</w>
Report ing</w>
B lau
aus es</w>
emerg ing</w>
b one</w>
Liber al</w>
Er zäh
sex y</w>
n ör
Sports mail</w>
vie wing</w>
Maß nahme</w>
un ting</w>
Jon as</w>
Clas sic</w>
ni c</w>
Cro ati
Frei en</w>
McIl roy</w>
goal keeper</w>
ap est</w>
ni ghts</w>
bli othe
N O
op e</w>
no ch
ber ry</w>
in ely</w>
ko w</w>
di ty</w>
Su ch
be enden</w>
fin ed</w>
gu ess</w>
An g
Mein ungs
bur gs</w>
qu est</w>
Betreu ung</w>
sy rischen</w>
ar chi
B öh
enttäu scht</w>
Hunder te</w>
tern al</w>
s son</w>
Off ensive</w>
Spitz enk
Bo x</w>
Sho p</w>
st est</w>
Z one</w>
met al</w>
Le eds</w>
viel mehr</w>
re ver
ru h
Kon to</w>
Ver mö
c .</w>
ö se</w>
M ember</w>
Zentral bank</w>
ver letzte</w>
c ils</w>
Tru ppen</w>
Exper im
contribu tion</w>
Lin ks
de fi
Dire kt
tra dition</w>
electri city</w>
Ne ck
Mark et</w>
no wn</w>
War n
bili tät</w>
anci ent</w>
hi p</w>
G ör
Sil va</w>
Funk tion
Kie w</w>
2 3.
Medien berichten</w>
De fi
touri sts</w>
Detro it</w>
T on</w>
challeng ing</w>
0 6
e c</w>
kurz fristig</w>
Philadel phia</w>
.co .uk</w>
Iran ian</w>
pos session</w>
S V
ger et
wi ck</w>
groß em</w>
Tä tigkeit</w>
Sän gerin</w>
child hood</w>
law makers</w>
B in
resol ution</w>
Stu dio</w>
re leg
T ank
l .</w>
inter ven
re vel
A P
f lan
cover s</w>
Am ster
Bezir k</w>
K und
ym ous</w>
gel angen</w>
Pla k
Geh ir
bl amed</w>
War en</w>
ck ers</w>
g ie
Caf é</w>
hin weg</w>
Best e</w>
C ross</w>
äl teren</w>
vers y</w>
acc ess
ges ammelt</w>
ver folgen</w>
g län
ori sten</w>
Dar auf</w>
Er wer
Flug zeug</w>
bi kin
ausge stattet</w>
1 1,
f ame</w>
Ti sch
F un
st an</w>
investig ators</w>
ci ally</w>
impro ving</w>
Di sp
Mich igan</w>
po or
p lu
il len</w>
vor steh
An dre</w>
ati e</w>
gefähr det</w>
b onds</w>
Mit chell</w>
Bra d</w>
Stu art</w>
w öch
er ne</w>
Spann ung</w>
el ine</w>
I TV</w>
St ö
t ank</w>
bre ast</w>
tter te</w>
Passag iere</w>
Ver mie
St ahl
her o
Ver lauf</w>
hau l</w>
Don au
schwar ze</w>
ti ere</w>
pass es</w>
v in
bro wn</w>
tro phy</w>
ein hei
ru b
fe el
Sp äter</w>
ge eignet</w>
M ill
Stadt verwaltung</w>
genu ine</w>
di men
some where</w>
ver an
War ner</w>
st ations</w>
col ate</w>
stad t
Mon tag
bar ten</w>
gl ück</w>
Kat astrophe</w>
Ministeri um</w>
mär kte</w>
inte gr
f ty</w>
dr außen</w>
Hei l
hou sehold</w>
Mag de
W end
fas hi
häu figer</w>
j unger</w>
ff ed</w>
G areth</w>
ent ran
Ge denk
T enn
ge klärt</w>
fini shing</w>
S ind</w>
Aus nahme</w>
hor n</w>
ay ed</w>
e missions</w>
encour aged</w>
T ig
cer ti
Dä ne
Mitglie der
Mili band</w>
ta th
Kon ferenz</w>
k lang</w>
surpri sing</w>
F alls</w>
Kan e</w>
niem als</w>
kin der</w>
dire kten</w>
R un
co aches</w>
Land rats
amoun ts</w>
d less</w>
auf gerufen</w>
B ad
eh mi
od d</w>
fahr ten</w>
Ma ke</w>
Pet ra</w>
syst em
irgend wie</w>
opp ers</w>
speci alist</w>
Bil dern</w>
athle te</w>
gesetz lichen</w>
dur ften</w>
acc us
P os
Mor ning</w>
l ein</w>
Camp bell</w>
geb unden</w>
r and
schw ä
Lei terin</w>
Ru bio</w>
Daim ler</w>
fol gende</w>
Man u
eh ow</w>
unk nown</w>
Sil ber
sc rut
Manhat tan</w>
ste am</w>
re duction</w>
typ ical</w>
B ond</w>
necess arily</w>
konkre te</w>
bor ough</w>
tac kl
Me d
asi e
ag on</w>
gebrau cht</w>
G all
heirat et</w>
peri o
Verb ands
zw ungen</w>
Lebens mittel</w>
Ex press</w>
er son</w>
Schwier igkeiten</w>
J ay</w>
holi days</w>
To wer</w>
p lot</w>
si ck
er ror</w>
Ur su
Ger ech
ch est</w>
er setzt</w>
Musli ms</w>
entschei det</w>
offiz ielle</w>
sh eer</w>
Regen sburg</w>
hei ght</w>
Tru ppe</w>
invest ing</w>
T oren</w>
rar ely</w>
M ord
fest en</w>
Äu ßer
Liby a</w>
passen ger</w>
H eb
land ed</w>
bekann ter</w>
be ding
af el</w>
Mitt lerweile</w>
Gewi cht</w>
enorm ous</w>
g uns</w>
Gi ven</w>
zul äs
lei d</w>
co s</w>
erz ul
Kur s
bel on
re aders</w>
exp enses</w>
Ju gen
Studi en</w>
beteili gung</w>
gerich ts</w>
tru ck</w>
sol ar</w>
Yor kshire</w>
d ded</w>
los es</w>
con stant</w>
del ay</w>
bab ies</w>
di erte</w>
mi es</w>
promis ing</w>
Gen ehmi
se venth</w>
Color ado</w>
Al fred</w>
hal b
da y
Geb urt</w>
Some times</w>
frequ ently</w>
qu ake</w>
sch of</w>
deck ung</w>
ern sthaf
ü gen</w>
ent wurf</w>
ari ties</w>
Fig ur</w>
M ir</w>
IN G</w>
defin ed</w>
as sum
colum n</w>
Schu macher</w>
Ke eper</w>
off ene</w>
P ho
tradition ellen</w>
V .</w>
f ließen</w>
categ ory</w>
Broo kl
hi erzul
N ote</w>
Stadtt eil</w>
rech tliche</w>
I G
hierzul ande</w>
z au
versu chten</w>
St one</w>
employe e</w>
Rah men
Auswär ts
repla cement</w>
L op
entr um</w>
fri sch</w>
pfi ff</w>
Er höhung</w>
w ell
un clear</w>
Ple ase</w>
Prof .</w>
h en
Ber ich
schl us
in ti
neu er
pro z
os ure</w>
wen dungen</w>
Y ah
mid field</w>
ran gli
con tain</w>
Kom pet
ma ier</w>
docum entary</w>
Net work</w>
über sch
m s
Milli onen
acknowle dged</w>
Gei st</w>
exp ects</w>
co o
b ag
P C
Stati stik</w>
de cken</w>
Un til</w>
d ness</w>
ra h
Vor gänger</w>
krei ses</w>
Hu gh
be zogen</w>
dr auf</w>
schle chter</w>
B IL
conc ept</w>
Cub a</w>
Go vern
Är ger</w>
shareh olders</w>
To y
Re formen</w>
Produ ktions
wat er
pas sion</w>
bran che</w>
event u
ed i</w>
qu ie
s an</w>
gel an
ter i
Rober ts</w>
S ah
over night</w>
appoin tment</w>
ri ff</w>
wal d
Möncheng ladbach</w>
offic es</w>
J eff
F on
Vietn am</w>
fahr t
lat ing</w>
sel y</w>
Amar il
T R
taus end</w>
zentr alen</w>
Ber lus
zeu gung</w>
sph ase</w>
estim ates</w>
res ses</w>
un its</w>
complic ated</w>
Lewand owski</w>
der i
R ome</w>
überzeu gen</w>
ban ken</w>
impro vement</w>
ag anda</w>
them e</w>
Ku li
et a</w>
Tür en</w>
o tic</w>
R B</w>
G anz
näch st</w>
in hal
f its</w>
it age</w>
sp ur</w>
dro hen</w>
Donner stagabend</w>
survi ve</w>
offici ally</w>
elek tron
Franz osen</w>
si ven</w>
contro versy</w>
Berlus con
kün digung</w>
sol e</w>
Ver wand
Kilo gramm</w>
A re
Da gegen</w>
A g
h euer</w>
S W
domin ated</w>
critic ised</w>
Fahr rad
P .</w>
const antly</w>
ra tion
gra ss</w>
Reg ime</w>
M ali
St rau
ber gs</w>
od ds</w>
Lag er
An griffe</w>
Wür z
M all
erfol gen</w>
Pil oten</w>
win ds</w>
re da
plan en</w>
K ampagne</w>
durch zu
star ben</w>
p rei
Reg ie</w>
Ak tie</w>
the ore
G P</w>
unser es</w>
gra d</w>
str en
brei ten</w>
se t
produ ziert</w>
su chte</w>
quali fied</w>
on ate</w>
W right</w>
einstim mig</w>
Anzei ge</w>
terror ists</w>
verlän gert</w>
Pic ture</w>
ti tel</w>
secu red</w>
Zu cker
gg y</w>
premi ere</w>
ju gend
mar sch</w>
strate gi
ay a</w>
Europ ä
z ell
be fand</w>
A ss
priv acy</w>
Um bau</w>
disc ussions</w>
we l</w>
jün gst</w>
ver passt</w>
A .
V el
Überra sch
D S
inner ungen</w>
betri eben</w>
zwei ter</w>
Co ck
außer gewöhn
Mr d.</w>
Ursu la</w>
west lichen</w>
rican e</w>
Bri sto
won ach</w>
Hin zu</w>
me er</w>
li p
J ün
k W</w>
kur zer</w>
m ly</w>
An halt</w>
Sa ar
the ory</w>
Techn ologie</w>
j ailed</w>
geb au
ro unds</w>
Re ad</w>
frei willi
e jf</w>
T am
deut sche.de</w>
Landes regierung</w>
A tem
dis gu
Spr ing
ver lust</w>
Archit ek
fal sche</w>
rou ghly</w>
ri si
car efully</w>
K ürz
som ebody</w>
tr y
conc entr
ren nen</w>
eff ici
betei ligten</w>
ver steht</w>
co ck
kl er</w>
den z</w>
Tick ets</w>
betra chtet</w>
B eine</w>
ab kommen</w>
Gre g</w>
eb enen</w>
0 .000</w>
Lok al
enter ing</w>
j er
ö kono
Sk i</w>
en er
Z ahn
S zen
st olen</w>
ber gen</w>
ass y</w>
P ur
be waff
per spec
klag te</w>
Län ge</w>
ear th
di r
erfolgrei che</w>
rebel s</w>
beschäf tigen</w>
om en
W ü
gew ohnt</w>
Kom p
et z
indi cated</w>
B T</w>
198 4</w>
ger iet</w>
be sitzer</w>
me tern</w>
Se ch
z o</w>
to ols</w>
Le ft</w>
j umped</w>
tur ing</w>
s mu
T iger</w>
dri tt
L .</w>
Zwe ck</w>
geh ol
schn ellen</w>
to ff
appro xim
Be für
mon thly</w>
inter views</w>
R ac
eingesch rän
spoli zei</w>
War ren</w>
ht ml</w>
Braun schwei
hol ung</w>
clo ck</w>
an en</w>
Ma yer</w>
produc ers</w>
re volution</w>
st öß
mis mus</w>
He ktar</w>
w ings</w>
Sch atten</w>
k einem</w>
zip lin
Orig inal</w>
mi ty</w>
cri min
K ey
cal cul
investi eren</w>
st em
P ass</w>
ergän zt</w>
kin son</w>
Kei th</w>
J ong</w>
y land</w>
Spiel zeit</w>
sei tigen</w>
än gt</w>
ass aul
co t</w>
noch mals</w>
öl l
Unter kunft</w>
P om
Inter nationale</w>
af rik
Sonn tagabend</w>
I owa</w>
Die t
mon t</w>
sicht bar</w>
in sp
on ic</w>
Al ten</w>
mp h</w>
schle chten</w>
Land schaft</w>
schei terte</w>
sie he</w>
politi cian</w>
Sch on
wir tschafts
Viel falt</w>
t ap
B olt</w>
bar es</w>
el er
H appy</w>
sti l</w>
quali fying</w>
Olympi asie
N ase</w>
14 ,
en ni
sign al</w>
ab e</w>
M ühl
compla ined</w>
Brookl yn</w>
Aktu alisiert</w>
I ER</w>
dafri ka</w>
K asse</w>
Sie ger
Re z
Sh anghai</w>
katholi schen</w>
C ob
Git ar
Alex is</w>
be dingt</w>
dest o</w>
er ine</w>
Mittel feld
Solidar ität</w>
tur n
c ry</w>
dead ly</w>
A qu
Me ghan</w>
ate ful</w>
roman tic</w>
Gri ff</w>
Sch aden
D oping</w>
Car ter</w>
clo thing</w>
qu er</w>
einz igar
jüng ste</w>
Fac tor</w>
Tru mps</w>
Sie mens</w>
hum ans</w>
ph ra
präsen tierte</w>
aufge fordert</w>
fru it</w>
sh ei
feel ings</w>
Luxem burg</w>
Malay sia</w>
vergan gene</w>
ne ter</w>
7 5
pro motion</w>
hund red</w>
te aching</w>
wi de
ev ac
schnei den</w>
Il lu
Bit te</w>
k et</w>
ome z</w>
to i
Ak teure</w>
conven i
medi um</w>
Eben so</w>
Jubil äum</w>
N ob
W ein</w>
up per
p lä
G y
comp on
With out</w>
Wel sh</w>
F ahn
Davi es</w>
verk auf</w>
R unden</w>
L un
part ly</w>
ra il</w>
mi ser
Bei träge</w>
ni sses</w>
ak tive</w>
Unter richt</w>
schi ff</w>
Un ten</w>
äu fe</w>
ad mit</w>
Zü ge</w>
gen heiten</w>
Flei sch</w>
.or g</w>
immi grants</w>
ck es</w>
K ob
re stor
refer ee</w>
Coun try</w>
W and</w>
regu lation</w>
Sch mit
ch at
Erst mals</w>
blo w
cre ation</w>
tel ephone</w>
spru chs
ei ster</w>
Har vey</w>
ersch einen</w>
me al</w>
refer ring</w>
H äu
Ort stei
verb ands</w>
Aus sch
St off
re ten</w>
Bet riebe</w>
ens burg</w>
Kom bination</w>
mist akes</w>
nieder län
einge führt</w>
zer o</w>
strei fen</w>
c als</w>
be wäl
ä ss
manufactur ing</w>
br enn
G omez</w>
ro of</w>
LE D</w>
s ang</w>
ini erte</w>
G ur
ange wiesen</w>
For est</w>
Einkauf s
ta ges
O thers</w>
Al ber
ger äte</w>
H ills</w>
wo chen
The atre</w>
Amster dam</w>
atholi c</w>
Spon sor
Man chmal</w>
ein setzen</w>
Be dürf
Gut achten</w>
an x
Be y
dres ses</w>
lo ck
deut liche</w>
trage dy</w>
fl ag
posi tiven</w>
g on</w>
Dar stellung</w>
Welt rangli
Er sten</w>
Diskussi onen</w>
4 9
recommen d
land s
Re form
Sar ko
Defen se</w>
C in
slo wly</w>
sei tdem</w>
übri g</w>
an hal
Terr oristen</w>
s ar
com man
her ausge
ber y</w>
geschä fts
Develop ment</w>
Ber ichte</w>
den heit</w>
announ ce</w>
histor ical</w>
ap oli
räum te</w>
co al</w>
So vie
represent atives</w>
B ell</w>
w ör
use ful</w>
in th</w>
g i</w>
Beck ham</w>
ses sions</w>
Flu g</w>
prot esti
Jaz z</w>
C are</w>
di sag
klassi schen</w>
Sü d</w>
Ster ne</w>
Mann heim</w>
thro wing</w>
DV D</w>
ov o</w>
N avy</w>
aus sehen</w>
g ood
cli ent</w>
ci ous</w>
Liter atur</w>
Mittel feld</w>
Dist anz</w>
wes halb</w>
Mc Car
fun c
wi dri
Fig uren</w>
co operation</w>
fil med</w>
sho cking</w>
Sho w
sy lv
member ship</w>
gerich t
ne ys</w>
ück t</w>
B j
con text</w>
C ars</w>
wieder holt</w>
bon us</w>
Margar et</w>
vor über
Bau ern</w>
be hand
el ements</w>
Ed die</w>
Regier ungen</w>
Bristo l</w>
Li onel</w>
Ad di
mem ories</w>
berei tschaft</w>
p c</w>
Elisa beth</w>
smo ke</w>
Snow den</w>
er eig
4 50</w>
Ver träge</w>
con secu
run ner</w>
Mex ican</w>
uni versi
gefäl lt</w>
gres sional</w>
Be weis</w>
Re port</w>
op ted</w>
regi ons</w>
Se ele</w>
Ky lie</w>
Sie gen</w>
re ducing</w>
cour age</w>
par liamentary</w>
In halte</w>
engag iert</w>
K UR
tr aut</w>
C level
Ha i
be merk
compar ison</w>
est e</w>
em ails</w>
tig ungs
Gan ze</w>
che aper</w>
gel aden</w>
Lu cas</w>
be stens</w>
Um fragen</w>
neh me</w>
sp ots</w>
U C
Sand ra</w>
ans wers</w>
Ra i
To ur
asse mb
w ling</w>
Tab elle</w>
so dass</w>
ge o
C ott
Verbesser ung</w>
al ts
Beg eist
Gef ähr
Du is
län en</w>
Rest aurants</w>
fl üs
erschi enen</w>
limi ts</w>
L ern
F ie
Rob inson</w>
Har d
Mo de
Geschwin digkeit</w>
K amp
ord able</w>
promin ent</w>
leb ende</w>
Di ffer
Rhein land</w>
regel n</w>
C atholic</w>
wer ing</w>
z in
S S
scho ol
Rück en
Neu zu
durchschnit tlich</w>
N SU</w>
ung el
finanz iell</w>
Du chess</w>
veröffentlich ten</w>
Spitzen reiter</w>
est ab
0 9
Gir ls</w>
H C</w>
be gun</w>
ch el</w>
über wiegend</w>
Vor jahres
spar ked</w>
ant asy</w>
stopp en</w>
Fahr rad</w>
los en
zep rä
Ash ley</w>
ambas sador</w>
fortun ate</w>
ran ked</w>
mer kte</w>
Zü rich</w>
sch lei
loc ations</w>
Hei z
geret tet</w>
particip ants</w>
zu zu
lei chte</w>
Bo eing</w>
mis m</w>
ca ster</w>
Reb ellen</w>
Zi vi
at in</w>
Nich ts</w>
be sitzt</w>
belie b
gu ez</w>
o mie</w>
re covered</w>
ex ist</w>
seem ingly</w>
Sus anne</w>
ie st</w>
ab geben</w>
en ke</w>
zu ständige</w>
gen om
jahr en</w>
Vi ol
At le
ro poli
th al</w>
K äl
c ab
mani pu
schü ler</w>
li fted</w>
d ancing</w>
Vor stellungen</w>
eff icient</w>
demon stri
An wäl
v alen</w>
teen age</w>
Leiden schaft</w>
engli schen</w>
estab lish</w>
R and</w>
enth ält</w>
behavi or</w>
gem ü
rat ings</w>
v i</w>
Däne mark</w>
ab is</w>
Russ lands</w>
om ing</w>
E ag
photograph s</w>
sprech end</w>
sp ons
Program me</w>
at i</w>
Voraus setzung</w>
es ome</w>
pra ised</w>
isla mi
mi gration</w>
sch re
ridi cul
gesch ossen</w>
ge wisse</w>
De ck
t ale</w>
ul en</w>
b ub
An forderungen</w>
Sol che</w>
Mili tär</w>
g asse</w>
k as</w>
fu sion</w>
Aus wei
umstritt enen</w>
Brau n</w>
Air bus</w>
sm us
J ar
Clevel and</w>
hang ing</w>
de serve</w>
coup les</w>
ü hr</w>
be ster</w>
bi eren</w>
qu alität</w>
t ort
C O</w>
inn es
m essen</w>
Bra dley</w>
con te
pp ers</w>
invol vement</w>
Ha as</w>
re member
auff äl
Mi schung</w>
Paläst in
De al</w>
famili e</w>
Sach schaden</w>
inter vention</w>
ver besser
Ar m</w>
min ority</w>
har te</w>
M utter
Fraktion schef</w>
busin ess
s mart
ab teilung</w>
consecu tive</w>
App laus</w>
repe ated</w>
al ter
num mer</w>
E M
wide spread</w>
t chen</w>
ti red</w>
au ton
Re pres
Hugh es</w>
iz z
Fei er</w>
li festyle</w>
Fas hion</w>
Jen ner</w>
man uel</w>
Pe ters
Toy ota</w>
j uni
ati sch</w>
pa ired</w>
Einla dung</w>
Invest or</w>
compani ed</w>
disappoin ting</w>
ver trauen</w>
Kin d
v able</w>
ex tend</w>
interess ant</w>
Zei tungen</w>
R ick</w>
ger ade
favor ite</w>
T il
rela tive</w>
Atle tico</w>
intro du
re gung</w>
D J
tau ght</w>
eingel ei
Le on</w>
Bun des</w>
innov ative</w>
o xi
every where</w>
accom modation</w>
differ ences</w>
ieh lt</w>
Stein brück</w>
entscheiden d</w>
Stand ards</w>
Per th</w>
suff icient</w>
te urer</w>
Fre e
k teur</w>
sted t</w>
Administ ration</w>
F .</w>
S ehr</w>
behaup tet</w>
dau erte</w>
R is
Al onso</w>
Haf en</w>
Ver ur
bro ad</w>
Lo b</w>
at t</w>
zu gs
Priv ate</w>
ro lle</w>
C um
a z</w>
encour aging</w>
strate gic</w>
A gr
Nor we
Rein hard</w>
Sch lag</w>
atten ding</w>
d al
reag ierte</w>
br ands</w>
ori z
la bel</w>
Co ur
3 9
N au
Ki ds</w>
Institu tionen</w>
soli dar
V ölk
syst eme</w>
Z igar
mei sters</w>
pap ers</w>
Prä sent
Rot h</w>
ak tiven</w>
Ret tung</w>
Op tion</w>
I sa
Arbeits markt</w>
wu chs</w>
ax y</w>
H B
ko wski</w>
Her bst
pre fer</w>
tal ented</w>
will kommen</w>
schaf tlich</w>
Cop yright</w>
News wire</w>
br e</w>
sich tig</w>
Singap ore</w>
Ermitt lungs
ist in</w>
Lei der</w>
descri be</w>
N av
Tex te</w>
Re gu
wat ers</w>
Ih rem</w>
app lau
y ne</w>
um ps</w>
Spitzenk andid
ori us</w>
Konta kte</w>
bl ind</w>
Sever al</w>
di stur
exp ress</w>
sp in</w>
practi ces</w>
N elson</w>
un denen</w>
ta ke
Frei tag
r unden</w>
Hol ger</w>
Amaril las
Be at
Sch ad
clas ses</w>
C ar</w>
gesto ßen</w>
J r</w>
be stehenden</w>
A ction</w>
Ministerprä sidenten</w>
Biel ef
K lar</w>
Sil ber</w>
sylv ania</w>
Ju ri
conta ins</w>
br ary</w>
0 5
wies o</w>
ko t</w>
Partei tag</w>
Verkauf s
1. 5</w>
le tting</w>
Unter schie
assi st</w>
brü cke</w>
M ick
Sie ge</w>
en di
represent ative</w>
Yor ker</w>
Kontro ll
ta kti
net works</w>
ri et</w>
asse ssment</w>
op ens</w>
Raf ael</w>
kar a</w>
bek räf
P ack
A my</w>
mi erten</w>
k ischen</w>
Zuhör er</w>
Cha os</w>
Nor mal
bekann t
and t</w>
Pan or
Ger icht
Blo om
stimm te</w>
disku tieren</w>
e ve</w>
Menschen rechte</w>
Port u
li on</w>
m ere</w>
par allel</w>
Ro y
nom ination</w>
t ool</w>
Geb ur
10 10</w>
G rä
gra m</w>
t reibt</w>
wei ße</w>
Er innerungen</w>
se her</w>
nerv ous</w>
J äger</w>
ul timate</w>
e ers</w>
shoul ders</w>
schwi erigen</w>
re z</w>
Do wn</w>
keines wegs</w>
bek amen</w>
versu che</w>
li erung</w>
in stit
sil ence</w>
ent lassen</w>
I WF</w>
T SG</w>
Can ber
inci dents</w>
Coll ins</w>
Di esen</w>
zusätz lichen</w>
Min i
Whe ther</w>
ho st
A xel</w>
L oh
en ters</w>
ade qu
gest re
U. N.</w>
the tic</w>
de x</w>
chine sische</w>
Kre m
Freuden stadt</w>
F SV</w>
woh nt</w>
Eisho ckey</w>
Erei gnisse</w>
einer lei</w>
kl appt</w>
gesch oss</w>
198 7</w>
wor thy</w>
ati sche</w>
surro unded</w>
L ink</w>
oll t</w>
13 ,
kul tur</w>
b n
lie fert</w>
druck s
se g
regi ster</w>
Wei ter</w>
m ac
essi ons</w>
Aus zeichnung</w>
we sten</w>
nut zt</w>
sich eren</w>
städ tischen</w>
entscheiden de</w>
P leite</w>
Rü st
Gr öß
Vertei digung</w>
peti tion</w>
gri d</w>
feri en</w>
specific ally</w>
sprech erin</w>
w ron
Ex ecu
Bet t</w>
comp eting</w>
Tr ennung</w>
Pf ei
Dro gen</w>
su e</w>
der ungs
sol ches</w>
H ack
beein druck
investig ate</w>
Emp feh
Schlag zei
r ural</w>
T ou
Mau ri
ver stor
mittei lung</w>
expan sion</w>
Klei dung</w>
Ma xi
re mote</w>
P end
ti ps</w>
demokra tische</w>
La wr
vi ously</w>
leh nt</w>
ver ring
exclu sive</w>
bi gen</w>
K en</w>
empf iehlt</w>
Rudol f</w>
Tra de</w>
g sk
öh nen</w>
italien ische</w>
En viron
Menschen rechts
ta iner</w>
d ging</w>
verän dern</w>
si t
Be frei
for um</w>
Nic olas</w>
health care</w>
Par ker</w>
Dutz end</w>
di c</w>
reven ues</w>
Öster reicher</w>
rec all</w>
ti se</w>
Mann schafts
j ection</w>
Ge fan
kl assen</w>
civili ans</w>
pl ung
icon ic</w>
ri t</w>
her gestellt</w>
vor gelegt</w>
her um
Spren g
Demon stra
Rom a</w>
recommen ded</w>
Betri eb
Ruh est
schar f</w>
di stra
N S</w>
K f
sch reck
kil ler</w>
f ungen</w>
s ank</w>
ec tions</w>
Do wning</w>
lö st</w>
at ar</w>
end ar</w>
ir on</w>
M auer</w>
et ter</w>
Berat ung</w>
sp ell</w>
Dien ste</w>
ven tion
ap ar
survi ved</w>
inten sive</w>
genom men
Ar ch
et ten
Fahrzeu gen</w>
re k
conta ined</w>
k auf</w>
Y an
exp and</w>
Durch gang</w>
Sovie t</w>
dro pping</w>
eu ros</w>
Teil nehmern</w>
Glei ch</w>
inc or
Bri ghton</w>
R av
da u</w>
be ziehen</w>
de cre
Venezu ela</w>
di l
h ten</w>
L ena</w>
C ab
Män ner
imp lic
fi es</w>
Le ader</w>
Wech sel
Asi en</w>
ab schluss</w>
Ma ier</w>
se ttle</w>
Z ir
Vir gin</w>
taxpa yers</w>
cc er</w>
re au</w>
lich sten</w>
enti tled</w>
Be denken</w>
L E</w>
Bre mer</w>
Ab ends</w>
sho wer</w>
Lawr ence</w>
Tran sport
person ally</w>
a chen</w>
head lines</w>
Wirk lichkeit</w>
ei st</w>
she et</w>
18 60</w>
L ine</w>
wür dig</w>
Flam men</w>
ac companied</w>
verb ände</w>
Poli z
Ver mitt
Bau stelle</w>
UR L</w>
lin er</w>
bili ties</w>
gh ausen</w>
woh nen</w>
Achtel finale</w>
x f
Grund stück</w>
sta b</w>
H O
krä f
Gro ß</w>
lich keits
Archi v</w>
pick ing</w>
Bran chen
klein ere</w>
M O
approxim ately</w>
Auth ority</w>
Au stausch</w>
Ver sor
zu ständigen</w>
leg g</w>
co aching</w>
del a
vor hand
Penn sylvania</w>
substan tial</w>
au tum
Stru kturen</w>
al i</w>
sh man</w>
ha di
Ver einen</w>
gelei stet</w>
Champi onships</w>
ch ap
ti sm</w>
rop s</w>
H art</w>
advi sed</w>
Wettbewer bs
h essi
Ha ve</w>
schul dig</w>
S ot
ula tionen</w>
K yle</w>
Ar mut</w>
s ni
eb ene</w>
p ackt</w>
ver sorgt</w>
wün sche</w>
Hor n</w>
O ff</w>
zah lungen</w>
w oo
LINK E</w>
z ent</w>
ge folgt</w>
verein igung</w>
te or
on i</w>
s ler</w>
bein ahe</w>
Stell ung</w>
aus drücklich</w>
f ault</w>
Se ven</w>
ar tig</w>
h ill</w>
c ann
gen ossen</w>
End spiel</w>
Pak ist
stöß t</w>
wh ol
ru fe</w>
Inter ess
Not wen
L ars</w>
Ho dg
Er lö
Ha wai
Bil ly</w>
it t
Fün f
some what</w>
bikin i</w>
hand ling</w>
moment an</w>
Kon gress</w>
vei l
f otogra
fort une</w>
B ale</w>
proce dure</w>
de em
Clar k</w>
Mo on</w>
Qu ote</w>
brei t</w>
fer in</w>
W ah
ver letzten</w>
eri ff</w>
d ose</w>
symbo li
leb enden</w>
explo sion</w>
Schrift steller</w>
n s
k ür
Nieder lagen</w>
wa ited</w>
head quarters</w>
Um zug</w>
gebie te</w>
c z
s wa
o h</w>
co ol
schlossen e</w>
br ing
re views</w>
Kar ne
Ber ater</w>
A sp
Stur z</w>
Grün der</w>
Hin spiel</w>
et liche</w>
form at</w>
kontrolli ert</w>
M ör
hor ror</w>
or ange</w>
occasi ons</w>
v ie</w>
Dam as
win d
Pla yer</w>
u a</w>
Ele ction</w>
Verein barung</w>
w ages</w>
er fasst</w>
gu ards</w>
konkre ten</w>
M und
pa ys</w>
r é
Te en
z ell</w>
W ende</w>
ti p</w>
In gol
read s</w>
P av
lo ch</w>
ob il
lan gem</w>
rä der</w>
Pot enzial</w>
blei be</w>
kno cked</w>
St un
estim ate</w>
re v
re de</w>
ch el
H SG</w>
med als</w>
Kämp fer</w>
eu ert</w>
nach voll
die jenigen</w>
Mc Donald</w>
be an</w>
ch y</w>
bli ckt</w>
fal schen</w>
entwick elte</w>
Min us</w>
H öl
Ludwi gs
Canber ra</w>
Be wus
A ston</w>
bu d
trä ger</w>
H P</w>
Pil ot</w>
cop y</w>
T üb
Mittel n</w>
Ma izi
Sarko zy</w>
lau ghter</w>
colle cted</w>
K ann</w>
Kro ati
sch em
sol ch</w>
exp ense</w>
Engli sch</w>
Christ ie</w>
Barcla ys</w>
u .
sh ame</w>
mel det</w>
Her ren
som ehow</w>
Sam uel</w>
reco ver</w>
Palästin ens
electron ic</w>
ir i</w>
be stra
lau gh</w>
Ko mi
C all</w>
sy cho
Rober to</w>
el ev
bestä tigen</w>
ge äußert</w>
Dra ma</w>
T V
Ev angel
R ats
ge geb
D um
eigh th</w>
Sit u
after wards</w>
lei stet</w>
k einerlei</w>
Alkoh ol
person nel</w>
bo den</w>
st ill
ni ck</w>
unter gebracht</w>
er mor
gh ty</w>
Aut orin</w>
C ros
bo ards</w>
Arbeits losigkeit</w>
hä usern</w>
Dou glas</w>
o f
the atre</w>
In fe
blau en</w>
Aufsichts rat</w>
vor s</w>
up date</w>
lab or</w>
Über blick</w>
g it</w>
Ab teil
4 7
dem anded</w>
ess a</w>
&apos; You</w>
Gesetz e</w>
mi en</w>
bit ten</w>
cha os</w>
Val en
statt dessen</w>
begrü ßt</w>
e chten</w>
4 000</w>
einer seits</w>
el igi
damali ge</w>
ver legt</w>
bre a
gehör ten</w>
verursa cht</w>
e ter</w>
ro lling</w>
Gr os
Lo cal</w>
Lie der</w>
gre es</w>
Con servatives</w>
ct ly</w>
Tur ner</w>
V ladimir</w>
Äußer ungen</w>
si der</w>
Mar ina</w>
verbrei tet</w>
har ten</w>
K lä
bil det</w>
Kolle ge</w>
m esse</w>
H at
Euro zone</w>
Rück gang</w>
Ma ster
län ger
Bu il
ab oli
To ile
Tok yo</w>
Gerech tigkeit</w>
Gottes dienst</w>
---- ----
Polizei sprecher</w>
Asylbewer ber</w>
AN D
provi der</w>
stra f
Z oo</w>
associ ation</w>
L inc
Q a
s si
fü llen</w>
ge ehrt</w>
S po
übri gen</w>
re l
h är
w i</w>
Li b</w>
bra ve</w>
leh nen</w>
ow ns</w>
über geben</w>
C legg</w>
Rau ch
Mas sach
Tages zeitung</w>
exp lan
Com missioner</w>
rec ording</w>
therap ie</w>
Vor trag</w>
Sha kes
Kn app</w>
awar eness</w>
col li
er i</w>
gehol fen</w>
te uren</w>
tri g
FP Ö</w>
E D</w>
aband oned</w>
spokes person</w>
ob tained</w>
w ahr</w>
Vermö gen
W y
Bundes staat</w>
nut ri
scienti fic</w>
z .
perspec tive</w>
ev a</w>
un ited</w>
Versich erungs
Vor gaben</w>
198 5</w>
abhängi g</w>
inten tion</w>
le gen
susta inable</w>
Celeb rity</w>
mor gens</w>
S I
d or</w>
sou l</w>
gest ürzt</w>
L ater</w>
Par t</w>
Ton i</w>
land ing</w>
Um ständen</w>
nutz te</w>
lon g
Gl as</w>
br a</w>
D I</w>
d ü
Kli tsch
schle un
B ell
ran ks</w>
Mess er</w>
sei ten</w>
spon sor
veröffentlich te</w>
Dien stag
criti ci
celeb ration</w>
stre tch</w>
J i
dep th</w>
Massach use
inf ection</w>
Tim o</w>
Or ten</w>
fei er
Sch reib
Wie der</w>
et c</w>
Massachuse tts</w>
tra iniert</w>
se u
Al t</w>
Per forman
Er schein
Frank reichs</w>
europ a</w>
15 ,
zeich neten</w>
le gend
schütz er</w>
Z en
am ts
17 ,
anx iety</w>
Eben falls</w>
Un glück</w>
ed ings</w>
K is
H aben</w>
leg acy</w>
Ara bien</w>
Ni gel</w>
T rop
coun ty</w>
Gri ff
wirtschaf tlich</w>
Un fortunately</w>
op fer</w>
w inger</w>
re lu
e g</w>
b as</w>
Mindest lohn</w>
aus einander
k anischen</w>
Bel ie
abgeord nete</w>
per si
lig ent</w>
il st</w>
17 0</w>
Je de</w>
dis cover</w>
di te</w>
k on</w>
ur g</w>
berücksich tigt</w>
ver langen</w>
Kü ste</w>
St ory</w>
li s</w>
Kön nen</w>
Dort m
be stri
liter ally</w>
Flä chen</w>
r n
stei gern</w>
Def ence</w>
se ment</w>
Liby en</w>
denk bar</w>
relu ct
ok o</w>
Fuß baller</w>
fi er
accur ate</w>
as en</w>
vorsitz enden</w>
la stung</w>
198 2</w>
Con t
gel un
stro ke</w>
H os
T än
f led</w>
Ein stellung</w>
Yah oo</w>
Se par
Fa ir</w>
Belast ung</w>
K ühl
k und
li fetime</w>
John ny</w>
m b</w>
F esti
mutmaß lichen</w>
ent schul
Shakes pe
is sa</w>
lie fen</w>
veil lance</w>
Con su
Bre ak
Wein stein</w>
convi ction</w>
ti tten</w>
car eful</w>
zu stand</w>
w re
produ ktion</w>
Pist orius</w>
ro ws</w>
1. 0
Ba i
j enen</w>
autum n</w>
diplom atic</w>
ver age</w>
Tr ink
Ma x
inci ple</w>
M o</w>
über legen</w>
represent ing</w>
j ung
F onds</w>
et en
A z
i dly</w>
radi cal</w>
arri ving</w>
K ay
ent rep
Sat elli
un fair</w>
G rant</w>
celeb rities</w>
197 9</w>
Sp er
Wat ford</w>
H ex
Ra y</w>
le stone</w>
ern den</w>
ra il
Ver di</w>
Jun cker</w>
Kir chen</w>
F V</w>
s ack</w>
eh men</w>
ett i</w>
B O
et ori
üb lich</w>
Ho li
O ft</w>
cas ual</w>
Nei ll</w>
tra cks</w>
K aum</w>
Col in</w>
st ability</w>
stu fe</w>
produc ing</w>
Mon ika</w>
pro vo
ersch ossen</w>
wan del</w>
Kom pon
Berluscon i</w>
Beb au
j ung</w>
mani fest
moment um</w>
an schließ
r ush</w>
Auf wand</w>
verstän dnis</w>
uni ons</w>
Gad da
C ali
d auer</w>
L ap
ve z</w>
cho colate</w>
Her kunft</w>
as set</w>
R ad</w>
Je des</w>
G rei
rela xed</w>
sing ly</w>
Orts zeit</w>
devast ating</w>
Con te</w>
er end</w>
Spani er</w>
gui dance</w>
dem nächst</w>
Weltmeister schaft</w>
Vi zeprä
A cht</w>
hr t</w>
c f
fahr ts
co in</w>
ro ots</w>
Inte gra
fo undation</w>
serv ation</w>
us sen</w>
T S
w ein</w>
medic ine</w>
er gab</w>
contribu tions</w>
bede uten</w>
sp unkt</w>
Best and
gefä hr</w>
T aten</w>
elt a</w>
fri st</w>
196 8</w>
spez iell</w>
fort gesetzt</w>
grü n</w>
Aktivi sten</w>
stie gen</w>
provi ders</w>
Contro l</w>
for sch
bur st</w>
Urlau bs
zur zeit</w>
cho ices</w>
Pop e</w>
bay erische</w>
Bla ke</w>
D id</w>
lo ving</w>
sle eping</w>
Aktu alisierung</w>
min ing</w>
ha st</w>
A ge</w>
mit geteilt</w>
wat ch
Train er
T ed</w>
kurz em</w>
gebie ten</w>
fundament al</w>
fas z
pul ling</w>
w y
Wahl kampf
elegan t</w>
Vide o
kon tin
woh n
land scape</w>
son n
betreu ung</w>
verz ichtet</w>
elek tri
vertei digen</w>
Nachwu chs
Stan ley</w>
V A</w>
exc it
L anc
sk irt</w>
redu ziert</w>
F inn
par k
beauftra gte</w>
nit z</w>
du res</w>
ver weist</w>
Per spektive</w>
the ast</w>
res cu
Trans fer</w>
eff ek
or ca</w>
Fak ten</w>
Zum indest</w>
os la
appro ached</w>
po sting</w>
Sch a
rela tives</w>
T M</w>
ni ck
ex hau
At tra
clas h
Mo de</w>
par tei</w>
be gründet</w>
al arm</w>
berüh mten</w>
achie vement</w>
K ür
monit oring</w>
Zwei te</w>
ti ment</w>
aus gel
hop efully</w>
ad dressed</w>
sac ri
celeb rating</w>
F oto
lau tete</w>
yo ff</w>
Schn ell
bel n</w>
Glau ben</w>
alli ance</w>
ge werk
Linc ol
19 .30</w>
Sei tdem</w>
bre cht</w>
Th at
th ick</w>
Um satz
de i</w>
Po int</w>
sum me</w>
Begeist erung</w>
c ott</w>
bru ck</w>
Che mi
al e
An kara</w>
as yl
scri pt</w>
der weil</w>
ut en
fun eral</w>
th alten</w>
wan ting</w>
getr ennt</w>
lang fristig</w>
def ended</w>
bas ketball</w>
ber ater</w>
Met all
Me cklen
ic ated</w>
unterschie dlich</w>
lö ste</w>
ei ved</w>
sti ftung</w>
er tes</w>
de e</w>
schli mm
F R
Dortm under</w>
ag ri
C ome</w>
wir kte</w>
Hoff nungen</w>
bo urs</w>
war ming</w>
R hyth
Adam s</w>
En tt
Dies el
An n</w>
V olle
j oked</w>
gesell schaftlichen</w>
begrü ßte</w>
Co alition</w>
E mily</w>
ge pf
vor genommen</w>
suspec ts</w>
gener ous</w>
Re ut
ge worfen</w>
aus geb
exten sive</w>
www. nachrichten.at</w>
Seni oren
jah res</w>
Erkennt nisse</w>
contro ls</w>
London er</w>
frei willig</w>
rep rä
19 ,
erschi en</w>
S ens
Bewer tung</w>
vor aus</w>
supp lies</w>
Sen ior</w>
cle ared</w>
C A</w>
KUR IER</w>
st ap
com eback</w>
Far b
Durch schnitt</w>
do s</w>
me yer</w>
Turni er
hol m</w>
Gra f</w>
S ob
rac ist</w>
boo m</w>
Fan ta
Su arez</w>
mat h</w>
el f
ö r</w>
Sonn abend</w>
H unt</w>
ma stur
Got tes</w>
whe el</w>
sch merz
Dub lin</w>
tho do
rie sigen</w>
Sal v
Alt stadt</w>
gan s</w>
funktion ieren</w>
ple aded</w>
G is
En semble</w>
pr inciple</w>
ar tikel</w>
ast y</w>
recogni tion</w>
ul ated</w>
amp s</w>
y an</w>
Konzer t
Ir gend
imp osed</w>
valu able</w>
Charak ter</w>
invest or</w>
be such</w>
Instit uts</w>
franch ise</w>
M TV</w>
Ne ther
lang jährige</w>
Schab l
exp osure</w>
err a</w>
An liegen</w>
sech sten</w>
up dates</w>
tm n</w>
mach ines</w>
juni or</w>
Fa zit</w>
Maxi mili
th eim</w>
por n</w>
Orts vorsteh
oni en</w>
re kt</w>
iP ad</w>
Pot ter</w>
de .</w>
norm alen</w>
verwen den</w>
197 4</w>
ati k</w>
wri ters</w>
Ver letzte</w>
D ancing</w>
less ons</w>
Zus ätz
Sch lei
Qa eda</w>
Champi on</w>
Ku chen</w>
Ar ten</w>
establi shment</w>
16 ,
pros ecu
sei zed</w>
fest e</w>
c ot
kämp fe</w>
ho sted</w>
b enden</w>
Bron ze</w>
mo dest</w>
5 5
Bar ry</w>
199 0s</w>
port folio</w>
pu b</w>
B ella</w>
Hei del
an trag</w>
Aus kunft</w>
Klitsch ko</w>
wel chem</w>
konzentri eren</w>
Vi ce</w>
Tru cks</w>
ge eig
erhöh te</w>
Met all</w>
quot ed</w>
ca ke</w>
stu hl</w>
aus gabe</w>
K K</w>
ber ühr
el ement</w>
Er b
St ücke</w>
colle ague</w>
ver such</w>
ch ann
stün den</w>
Zei tungs
bemüh t</w>
Nor wegen</w>
Mil ch
Bachel or</w>
Re par
Grund stück
Konjunk tur
aus stellung</w>
vor her
de grees</w>
er staun
H unde</w>
Fern ando</w>
d oping</w>
plan es</w>
unter richt</w>
Au stin</w>
attra cted</w>
Finanz krise</w>
phen omen
Agen da</w>
ank le</w>
for gotten</w>
tr aten</w>
dis abled</w>
Des wegen</w>
ver lei
Sie d
aus führ
0 4
c ell
G um
geför dert</w>
any body</w>
um fasst</w>
lab our</w>
Techn ology</w>
un certainty</w>
198 0s</w>
Wan del</w>
Att orney</w>
weal thy</w>
gli mp
Un bekannte</w>
L öff
yo un
Hei di</w>
fl uss
Sp ac
Kri st
promot ing</w>
s p</w>
J o</w>
mitt els</w>
c ited</w>
spann end</w>
Proz ent
dead line</w>
acc eler
cap tioned</w>
soldi er</w>
demo cratic</w>
R in
Frei zeit
Traff ord</w>
Jahres ende</w>
tra gs</w>
för dert</w>
freu de</w>
jag d</w>
Vers ammlung</w>
vermu tet</w>
Sch er
E T</w>
defe ated</w>
fahr ens</w>
Ch em
conclu sion</w>
tz en</w>
Nieder lande</w>
Gi b
blo cked</w>
erh äl
GM T</w>
ri ses</w>
Dun can</w>
äm mer
H olo
7 50</w>
m ation</w>
Präsident schafts
198 3</w>
onn y</w>
ci o</w>
Ein kommen
ch am
sta irs</w>
Se attle</w>
S ammlung</w>
stri p</w>
ö fter</w>
li p</w>
St ellen
verein bart</w>
te eth</w>
pro ven</w>
Stat us</w>
adv ent
Boch um</w>
Pre u
ast ro
e cht</w>
den y</w>
Mar athon</w>
ei ro</w>
Num ber</w>
mut ter</w>
ß es</w>
zu gän
for ever</w>
bet reibt</w>
ne st</w>
grün de</w>
er richtet</w>
ear ning</w>
gest u
Bewer ber</w>
gerei st</w>
gr ateful</w>
k ette</w>
kni fe</w>
ous ness</w>
H ahn</w>
qu anti
Gar den</w>
ol f</w>
Fran zö
C oh
M R
Demon stration</w>
e ur</w>
sha ke</w>
ot ed</w>
Adri an</w>
Auf lage</w>
p ants</w>
f ate</w>
ac re</w>
ki p</w>
Sem in
Jo chen</w>
Ober n
n an
Ter mine</w>
musikali sche</w>
fat al</w>
ver mitteln</w>
stür zte</w>
Hei m</w>
e sia</w>
Cat al
Sk and
mi sten</w>
bizar re</w>
O ld
spä teren</w>
ó n</w>
Ad ler</w>
compreh ensive</w>
entde cken</w>
weap on</w>
aussch usses</w>
bei tragen</w>
im men
hi red</w>
Hin ter</w>
per mission</w>
R ing
be vor
blo cks</w>
m äh
erziel en</w>
D ich
pl ate</w>
del ayed</w>
um so</w>
divi ded</w>
Mur phy</w>
ti ver</w>
sch wär
Z usammen</w>
Um fang</w>
recogni se</w>
tri ps</w>
Sig mar</w>
W ater</w>
ch icken</w>
far mers</w>
irgend wo</w>
si an</w>
St ress</w>
Be dro
bran ch</w>
schü tt
k eln</w>
sicher ungen</w>
Corpor ation</w>
Pa der
Verhand lungs
bei der</w>
Bri ten</w>
Vo ice</w>
Süd korea</w>
Le o</w>
T anz</w>
cap ture</w>
qu al
Smart phones</w>
tath le
R äum
Am bi
durch setzen</w>
hi de</w>
hu mili
la ke</w>
So wohl</w>
sex per
win dows</w>
Woh l</w>
highli ghted</w>
Val ent
hom a</w>
opp t</w>
K ent</w>
Wa sch
ant in</w>
be zir
Al te</w>
Mark eting</w>
N PD</w>
z ig
v ine</w>
Fortsch ritte</w>
klini k</w>
Sig n
Ir land</w>
Mo tiv
Trau m
ent en
Valen cia</w>
m ess</w>
sli pped</w>
M other</w>
informi erte</w>
Berei che</w>
Verein igung</w>
Arbeits losen
campaig ns</w>
he ftig</w>
zuver sichtlich</w>
Be währ
restri ctions</w>
er to</w>
Kath arina</w>
s ation</w>
consci ous</w>
ge zwungen</w>
Execu tive</w>
stand s
Pri or
ali ties</w>
M I
g ste</w>
Ta sche</w>
reich lich</w>
ap ers</w>
exten sion</w>
wei len</w>
Dor n
Be vor</w>
Op ti
Büh nen
Vie w</w>
Ex change</w>
a e</w>
for scher</w>
E ss
be ur
abge geben</w>
br in
geflo gen</w>
disor der</w>
z enten</w>
ur ban</w>
komple tte</w>
grenz ung</w>
ol e
Z ut
Rom an
Hoch zeit</w>
z iel</w>
li qu
ungs -</w>
O la
Bet t
T T
bin dung</w>
gew ohn
ma x</w>
k r
aly mp
Bunde spräsident</w>
ul es</w>
Wur zeln</w>
spe aks</w>
m els</w>
gebür tige</w>
th ful</w>
rech nung</w>
K ari
dan ke</w>
rap idly</w>
St rich</w>
pain ful</w>
kap it
Ma ster</w>
ter ran
er b
belast et</w>
kenn en
b led</w>
Schlagzei len</w>
be weisen</w>
me ter
Kroati en</w>
Leip ziger</w>
flo wers</w>
sex ually</w>
Kom ple
Ähn lich</w>
C ari
clin ical</w>
gew annen</w>
schul d</w>
b al</w>
schlag enen</w>
Nie mand</w>
fle w</w>
Ges am
Sz enen</w>
J as
regar ded</w>
Conn or</w>
fest gelegt</w>
t u</w>
impres sion</w>
gän ger
ll te</w>
U kip</w>
Ron ald</w>
Entt äu
in ate</w>
Ein es</w>
Titel verteidiger</w>
youn gest</w>
ter innen</w>
p in</w>
ni sch</w>
Identi tät</w>
it zen</w>
c en</w>
ein stellen</w>
stom ach</w>
hal f
ein fache</w>
stag s</w>
Tri o</w>
el en</w>
Th ank</w>
Pent agon</w>
Ben utz
en ix</w>
Web seite</w>
fas cin
E ast
Ih m</w>
Chin as</w>
rei fe</w>
St ationen</w>
asyl um</w>
Le gi
helicop ter</w>
com edi
Ch eck</w>
IO C</w>
Gui do</w>
Schwer punkt</w>
ra sse</w>
Rob ben</w>
empfeh len</w>
pursu e</w>
Erweiter ung</w>
Verein ten</w>
Veröffent lichung</w>
Nether lands</w>
auf treten</w>
ap h
par ade</w>
esi en</w>
Ru th</w>
N ott
recogni sed</w>
pri de</w>
Cz ech</w>
che cked</w>
ch ingen</w>
Fin al</w>
K är
R on</w>
sur ing</w>
tou ched</w>
pra ise</w>
engine ering</w>
In nen</w>
Fu chs</w>
en de
gefü gt</w>
Stre cken</w>
mär kten</w>
Frü her</w>
blas en</w>
Ga stron
requ est
list ening</w>
hol ten</w>
in tri
au ction</w>
Angehöri ge</w>
distri bution</w>
ausge hen</w>
Reda ktion</w>
et z</w>
Brand en
investig ations</w>
c abinet</w>
säm tliche</w>
nam ens</w>
Rad fahrer</w>
en counter</w>
vol ume</w>
Ma ß</w>
üb lichen</w>
Cal w</w>
ow nership</w>
Mitglie ds
Mediz in</w>
aim s</w>
Betra g</w>
leg ungen</w>
H ak
stie ß</w>
drän gen</w>
p id</w>
V u
ange griffen</w>
A pothe
verfü gen</w>
ra ge</w>
Milliar den
P anz
bet rug</w>
Einsatz kräfte</w>
kri tische</w>
oo k
Herr mann</w>
2. 5</w>
Indepen dent</w>
resul ted</w>
ghten ed</w>
meth od</w>
che cks</w>
ff ield</w>
geb ühren</w>
c am</w>
bro chen</w>
IC E</w>
Tes co</w>
int age</w>
M innes
ö s</w>
week ly</w>
ör tlichen</w>
reta ilers</w>
monit or</w>
touri st</w>
ö l</w>
israel ischen</w>
gun sten</w>
stor age</w>
Car lo</w>
K nie</w>
al b</w>
Es sen
ge warnt</w>
Allgem ein</w>
Mod ell
ge ber
con spi
geschütz t</w>
bit tet</w>
di scher</w>
enk el</w>
ch ic</w>
T um
blo ß</w>
si sch</w>
Ly on</w>
wron g
digit alen</w>
b its</w>
stati stics</w>
Ar min</w>
rich tete</w>
b ail</w>
wettbewer b</w>
Par iser</w>
le hrer</w>
ver handelt</w>
n aked</w>
f ut
tr inken</w>
comp et
bas eball</w>
Motor rad
Brü der</w>
Or te</w>
ten er</w>
F res
Moder ator</w>
Vermie ter</w>
her steller</w>
t sp
sp anische</w>
ger ä
F lie
Presse mitteilung</w>
Bundes ländern</w>
min ds</w>
ver mie
prison ers</w>
künst l
tel n</w>
ad ver
Unter haltung</w>
a stron
7 6
entschei dung</w>
glam orous</w>
Bro w
Blo ck</w>
eg g</w>
part ner
popul arity</w>
Croati a</w>
jahr e</w>
versich ert</w>
em e
mitt l
ti le</w>
cra shed</w>
ab ends</w>
freund lich</w>
Vorder grund</w>
sub scri
religi on</w>
Ä l
A gri
Be gegn
sk ir
20 th</w>
Rodri guez</w>
guaran te
ie ten</w>
si mul
organ ised</w>
r hyth
P lätzen</w>
Brei t
it or</w>
ver bringen</w>
nomine e</w>
Hoch schul
De an</w>
Die bst
sich ere</w>
Er furt</w>
j f
k os
Dig it
tri umph</w>
Ev ent</w>
Ch all
stie gs
gri ff
Verlu ste</w>
Pf alz</w>
wirk ung</w>
lo cken</w>
Medikam ente</w>
Di vision</w>
zwei f
Verhält nisse</w>
notwen digen</w>
Reak tionen</w>
descri bes</w>
Ger d</w>
C ami
Ein schrän
Altern ativen</w>
lich ten</w>
be stellt</w>
geh ende</w>
blow job</w>
da hinter</w>
il a</w>
197 2</w>
no ise</w>
journ al</w>
contribu te</w>
Ap par
C C</w>
Masch inen
emplo yers</w>
öl ler</w>
ch ill</w>
bu chen</w>
Clau de</w>
ein schließlich</w>
pr all
kl ingen</w>
direc tors</w>
griech ische</w>
sen kt</w>
but ton</w>
eg gs</w>
on ally</w>
sch licht</w>
metho ds</w>
b innen</w>
Lin z</w>
Nach t
Up date</w>
E mo
ber ge</w>
at tri
Y u
vern ün
comm and</w>
S hel
b ist</w>
nom inated</w>
ar er</w>
Haushal te</w>
Ma c</w>
wa ffe</w>
proce dures</w>
Vinc ent</w>
squ ee
197 6</w>
s man</w>
B B</w>
kommen tierte</w>
AF L</w>
Ü bri
t all</w>
Unterschie de</w>
organis ations</w>
An wendung</w>
ts ächlich</w>
gel esen</w>
4 8
Durch schnit
Stell vertreter</w>
Go v.</w>
su dden</w>
sop hist
ür t</w>
Rach el</w>
hor ses</w>
Kli ma</w>
rei he</w>
sh y</w>
lei dung</w>
mar gin</w>
Hamp shire</w>
er t
supp orts</w>
introdu ce</w>
tax i</w>
co ast
B oss</w>
ha fen</w>
re sident</w>
invest ed</w>
to ber
gen des</w>
Neu stadt</w>
dru cken</w>
el er</w>
Flü ge</w>
attemp ting</w>
Ent fer
Bri git
Ser ena</w>
Konz ep
sch oss</w>
Down load</w>
out door</w>
AD AC</w>
D ritte</w>
Tri umph</w>
unvei led</w>
ho fer</w>
Journ alist</w>
De pres
sel ect</w>
Euro pa
Tra g
y mp
N et</w>
ben e
K end
vers amm
In fo</w>
Burn ley</w>
sta ff
Hodg son</w>
Therap ie</w>
b ou
schön sten</w>
olog isch</w>
S la
billi ons</w>
198 1</w>
uni form</w>
so weit</w>
consu mption</w>
We ek
organiz ations</w>
krie gs
hu gely</w>
Gau ck</w>
c igar
v ag
Sy mbo
Dienst leistungen</w>
vo e</w>
Magde burg</w>
Republi kaner</w>
iel ds</w>
fir ing</w>
respec tively</w>
ord net</w>
M AR
Sep t</w>
z win
sk o
Bo y</w>
so w
I cel
Ali ce</w>
equi pped</w>
Haupt versammlung</w>
akzep tieren</w>
p ure</w>
befür chten</w>
aw ful</w>
fi gen</w>
läng ere</w>
F O
Juni oren</w>
Kap az
Ka i</w>
Or chester</w>
susta ined</w>
fi res</w>
Mail and</w>
gen ce</w>
um ini
läu fer</w>
t ung
T O</w>
T .</w>
advi s
Minnes ota</w>
neh mung</w>
Spen cer</w>
ten sions</w>
Verbin dungen</w>
A F</w>
H ear
Maizi ère</w>
hinter her</w>
pel ine</w>
erli tt</w>
Mart ina</w>
Reg im
O range</w>
Kompromis s</w>
Wom an</w>
ange sprochen</w>
abor tion</w>
bel o
Argent inien</w>
qu i</w>
R ollen</w>
kom pet
prec ed
physi cally</w>
sch me
tro users</w>
ro y
V ot
al o</w>
Con tin
ör ung</w>
Sim one</w>
Ehem ann</w>
Pho enix</w>
W and
leh nung</w>
z heimer</w>
ani k</w>
ver schul
cros sed</w>
wür fen</w>
se el
mar ke</w>
aus s</w>
sh ell</w>
pat ri
en -</w>
tr ennen</w>
kl en</w>
[...]
